/* Generated by Edge Impulse
 *
 * Permission is hereby granted, free of charge, to any person obtaining a copy
 * of this software and associated documentation files (the "Software"), to deal
 * in the Software without restriction, including without limitation the rights
 * to use, copy, modify, merge, publish, distribute, sublicense, and/or sell
 * copies of the Software, and to permit persons to whom the Software is
 * furnished to do so, subject to the following conditions:
 *
 * The above copyright notice and this permission notice shall be included in
 * all copies or substantial portions of the Software.
 *
 * THE SOFTWARE IS PROVIDED "AS IS", WITHOUT WARRANTY OF ANY KIND, EXPRESS OR
 * IMPLIED, INCLUDING BUT NOT LIMITED TO THE WARRANTIES OF MERCHANTABILITY,
 * FITNESS FOR A PARTICULAR PURPOSE AND NONINFRINGEMENT. IN NO EVENT SHALL THE
 * AUTHORS OR COPYRIGHT HOLDERS BE LIABLE FOR ANY CLAIM, DAMAGES OR OTHER
 * LIABILITY, WHETHER IN AN ACTION OF CONTRACT, TORT OR OTHERWISE, ARISING FROM,
 * OUT OF OR IN CONNECTION WITH THE SOFTWARE OR THE USE OR OTHER DEALINGS IN THE
 * SOFTWARE.
 */

#ifndef _EI_CLASSIFIER_TFLITE_LEARN_3_H_
#define _EI_CLASSIFIER_TFLITE_LEARN_3_H_

#define EI_CLASSIFIER_TFLITE_LEARN_3_ARENA_SIZE     8243
const size_t tflite_learn_3_arena_size = 8243;

#ifdef EI_CLASSIFIER_TFLITE_ARENA_SIZE
#if EI_CLASSIFIER_TFLITE_ARENA_SIZE < EI_CLASSIFIER_TFLITE_LEARN_3_ARENA_SIZE
#undef EI_CLASSIFIER_TFLITE_ARENA_SIZE
#define EI_CLASSIFIER_TFLITE_ARENA_SIZE EI_CLASSIFIER_TFLITE_LEARN_3_ARENA_SIZE
#endif // #if EI_CLASSIFIER_TFLITE_ARENA_SIZE < EI_CLASSIFIER_TFLITE_LEARN_3_ARENA_SIZE
#else
#define EI_CLASSIFIER_TFLITE_ARENA_SIZE EI_CLASSIFIER_TFLITE_LEARN_3_ARENA_SIZE
#endif // #ifdef EI_CLASSIFIER_TFLITE_ARENA_SIZE

#if defined __GNUC__
#define ALIGN(X) __attribute__((aligned(X)))
#elif defined _MSC_VER
#define ALIGN(X) __declspec(align(X))
#elif defined __TASKING__
#define ALIGN(X) __align(X)
#else
#define ALIGN(X)
#endif
ALIGN(16) const unsigned char tflite_learn_3[] = {
  0x1c, 0x00, 0x00, 0x00, 0x54, 0x46, 0x4c, 0x33, 0x14, 0x00, 0x20, 0x00,
  0x1c, 0x00, 0x18, 0x00, 0x14, 0x00, 0x10, 0x00, 0x0c, 0x00, 0x00, 0x00,
  0x08, 0x00, 0x04, 0x00, 0x14, 0x00, 0x00, 0x00, 0x1c, 0x00, 0x00, 0x00,
  0x8c, 0x00, 0x00, 0x00, 0xbc, 0x00, 0x00, 0x00, 0xa0, 0x29, 0x00, 0x00,
  0xb0, 0x29, 0x00, 0x00, 0x58, 0x33, 0x00, 0x00, 0x03, 0x00, 0x00, 0x00,
  0x01, 0x00, 0x00, 0x00, 0x04, 0x00, 0x00, 0x00, 0x6e, 0xd5, 0xff, 0xff,
  0x0c, 0x00, 0x00, 0x00, 0x1c, 0x00, 0x00, 0x00, 0x3c, 0x00, 0x00, 0x00,
  0x0f, 0x00, 0x00, 0x00, 0x73, 0x65, 0x72, 0x76, 0x69, 0x6e, 0x67, 0x5f,
  0x64, 0x65, 0x66, 0x61, 0x75, 0x6c, 0x74, 0x00, 0x01, 0x00, 0x00, 0x00,
  0x04, 0x00, 0x00, 0x00, 0xb8, 0xff, 0xff, 0xff, 0x11, 0x00, 0x00, 0x00,
  0x04, 0x00, 0x00, 0x00, 0x08, 0x00, 0x00, 0x00, 0x64, 0x65, 0x6e, 0x73,
  0x65, 0x5f, 0x38, 0x35, 0x00, 0x00, 0x00, 0x00, 0x01, 0x00, 0x00, 0x00,
  0x04, 0x00, 0x00, 0x00, 0xe6, 0xd6, 0xff, 0xff, 0x04, 0x00, 0x00, 0x00,
  0x0f, 0x00, 0x00, 0x00, 0x63, 0x6f, 0x6e, 0x76, 0x32, 0x64, 0x5f, 0x38,
  0x34, 0x5f, 0x69, 0x6e, 0x70, 0x75, 0x74, 0x00, 0x01, 0x00, 0x00, 0x00,
  0x0c, 0x00, 0x00, 0x00, 0x08, 0x00, 0x0c, 0x00, 0x08, 0x00, 0x04, 0x00,
  0x08, 0x00, 0x00, 0x00, 0x13, 0x00, 0x00, 0x00, 0x04, 0x00, 0x00, 0x00,
  0x13, 0x00, 0x00, 0x00, 0x6d, 0x69, 0x6e, 0x5f, 0x72, 0x75, 0x6e, 0x74,
  0x69, 0x6d, 0x65, 0x5f, 0x76, 0x65, 0x72, 0x73, 0x69, 0x6f, 0x6e, 0x00,
  0x14, 0x00, 0x00, 0x00, 0xe0, 0x28, 0x00, 0x00, 0xd8, 0x28, 0x00, 0x00,
  0xc4, 0x28, 0x00, 0x00, 0x84, 0x28, 0x00, 0x00, 0x34, 0x28, 0x00, 0x00,
  0x04, 0x28, 0x00, 0x00, 0xec, 0x27, 0x00, 0x00, 0xdc, 0x13, 0x00, 0x00,
  0xa4, 0x13, 0x00, 0x00, 0x74, 0x12, 0x00, 0x00, 0x64, 0x00, 0x00, 0x00,
  0x5c, 0x00, 0x00, 0x00, 0x54, 0x00, 0x00, 0x00, 0x4c, 0x00, 0x00, 0x00,
  0x44, 0x00, 0x00, 0x00, 0x3c, 0x00, 0x00, 0x00, 0x34, 0x00, 0x00, 0x00,
  0x2c, 0x00, 0x00, 0x00, 0x24, 0x00, 0x00, 0x00, 0x04, 0x00, 0x00, 0x00,
  0x8a, 0xd7, 0xff, 0xff, 0x04, 0x00, 0x00, 0x00, 0x10, 0x00, 0x00, 0x00,
  0x31, 0x2e, 0x31, 0x34, 0x2e, 0x30, 0x00, 0x00, 0x00, 0x00, 0x00, 0x00,
  0x00, 0x00, 0x00, 0x00, 0x0c, 0xce, 0xff, 0xff, 0x10, 0xce, 0xff, 0xff,
  0x14, 0xce, 0xff, 0xff, 0x18, 0xce, 0xff, 0xff, 0x1c, 0xce, 0xff, 0xff,
  0x20, 0xce, 0xff, 0xff, 0x24, 0xce, 0xff, 0xff, 0x28, 0xce, 0xff, 0xff,
  0xc6, 0xd7, 0xff, 0xff, 0x04, 0x00, 0x00, 0x00, 0x00, 0x12, 0x00, 0x00,
  0xe3, 0x64, 0x29, 0xbd, 0x4d, 0x0f, 0x1e, 0xbe, 0x5e, 0x5c, 0x59, 0x3e,
  0x88, 0xed, 0x30, 0x3e, 0x5b, 0x1f, 0xe4, 0xbd, 0xee, 0x17, 0xc4, 0xbd,
  0x87, 0x1e, 0x45, 0xbd, 0xb5, 0x39, 0x46, 0xbe, 0x54, 0x5c, 0x12, 0x3e,
  0xb2, 0x35, 0x71, 0xbe, 0x29, 0x70, 0xde, 0x3d, 0x98, 0x48, 0xf9, 0x3d,
  0x1c, 0x15, 0x6a, 0x3d, 0x10, 0xe0, 0x30, 0x3d, 0xf2, 0x5d, 0x09, 0x3e,
  0xbc, 0xa4, 0xbf, 0xbd, 0x0b, 0x07, 0x8f, 0xbd, 0x5d, 0x01, 0x46, 0xbe,
  0xd1, 0x60, 0x87, 0x3c, 0x9a, 0x0f, 0xa4, 0xbd, 0x11, 0xaf, 0xa2, 0xbd,
  0xe9, 0x28, 0xff, 0x3d, 0xe7, 0x7c, 0xf2, 0xbd, 0x03, 0x18, 0x69, 0xbe,
  0xa2, 0x00, 0x52, 0x3d, 0xf6, 0xd3, 0x62, 0x3d, 0xa0, 0x88, 0x91, 0x3d,
  0xf7, 0x33, 0x8c, 0x3e, 0xa1, 0xce, 0x58, 0x3b, 0xd9, 0x85, 0x5e, 0x3c,
  0xc7, 0xef, 0xb5, 0x3d, 0x19, 0xe9, 0x52, 0x3d, 0x75, 0xcf, 0xbd, 0xbc,
  0xf0, 0x91, 0x5d, 0xbd, 0x87, 0x59, 0x33, 0xbe, 0xaf, 0x75, 0xc0, 0x3d,
  0x2e, 0x7f, 0x07, 0xbd, 0xe3, 0x16, 0xab, 0xbd, 0xd4, 0x5b, 0xd0, 0xbd,
  0xd0, 0x5f, 0x6b, 0x3c, 0xe1, 0x3f, 0xfb, 0x3d, 0x41, 0x60, 0xe7, 0xbd,
  0x05, 0x60, 0xa7, 0x3d, 0x05, 0x7e, 0x32, 0xbd, 0xc3, 0x61, 0x36, 0xbe,
  0x0a, 0x27, 0x60, 0x3c, 0xcc, 0x97, 0xe3, 0xbd, 0x61, 0x1f, 0x3d, 0xbe,
  0x65, 0x80, 0x74, 0xbe, 0x7a, 0x26, 0x28, 0xbe, 0xf6, 0x01, 0x59, 0x3c,
  0xb0, 0xfe, 0x65, 0xbe, 0x57, 0xf2, 0xa7, 0x3d, 0xc3, 0x68, 0x3f, 0x3e,
  0x98, 0x95, 0xbb, 0x3c, 0x75, 0x33, 0x57, 0xbe, 0xd6, 0xbe, 0x38, 0xbd,
  0xfd, 0x01, 0x7c, 0x3d, 0xef, 0x0f, 0x41, 0xbd, 0x4c, 0x89, 0x14, 0xbe,
  0x38, 0x01, 0xd5, 0x3d, 0x2d, 0xac, 0xeb, 0xbd, 0x6f, 0x34, 0xfc, 0xbd,
  0x4f, 0xb9, 0xf3, 0xbb, 0x84, 0x63, 0x0a, 0x3e, 0xc2, 0x33, 0x25, 0xbe,
  0x7e, 0xf1, 0x41, 0x3d, 0x96, 0x7f, 0x0d, 0xbc, 0x5f, 0x89, 0x71, 0x3d,
  0x8c, 0xc9, 0xab, 0xbd, 0xb6, 0xc6, 0xb4, 0xbd, 0xd3, 0x46, 0x56, 0xbe,
  0x56, 0x33, 0x87, 0xbd, 0xe3, 0xa4, 0xc4, 0xbd, 0x3e, 0x35, 0xae, 0x3d,
  0xf6, 0xa1, 0xeb, 0x3d, 0x5e, 0xaa, 0xef, 0xbd, 0x44, 0x3a, 0x0e, 0xbe,
  0xe7, 0x03, 0xfe, 0x3d, 0xaa, 0xc8, 0x44, 0x3d, 0x3c, 0xc0, 0x06, 0xbe,
  0xb7, 0xf3, 0x6f, 0x3d, 0xb0, 0x4d, 0xf7, 0xbd, 0x12, 0x6e, 0x93, 0xbc,
  0x79, 0x0f, 0x5e, 0x3c, 0xb8, 0xa7, 0xeb, 0x3d, 0x57, 0xb0, 0x53, 0xbd,
  0xd0, 0x5c, 0xae, 0xbd, 0xd0, 0x50, 0xfb, 0xbc, 0x5e, 0xe0, 0x26, 0xbe,
  0xbf, 0x83, 0x74, 0xbe, 0xa0, 0x5b, 0x84, 0x3d, 0x49, 0xd2, 0x16, 0xbe,
  0xbc, 0x38, 0x51, 0xbd, 0x0f, 0x2f, 0xaa, 0xbd, 0xdb, 0xd7, 0x46, 0x3d,
  0x5f, 0xe6, 0x8b, 0x3e, 0x3c, 0x5b, 0x15, 0x3d, 0xd9, 0xb2, 0x0f, 0x3e,
  0x7b, 0xe6, 0x3c, 0xbe, 0x72, 0xdb, 0x18, 0x3e, 0x96, 0xc5, 0x9b, 0x3e,
  0x30, 0xd9, 0xd9, 0xbd, 0xfd, 0x1e, 0x9d, 0x3e, 0xea, 0xe5, 0x05, 0xbf,
  0xa5, 0x34, 0x67, 0xbe, 0xfc, 0x3b, 0x9e, 0x3e, 0xdc, 0xc7, 0x5a, 0x3e,
  0x00, 0x59, 0x66, 0xbe, 0xe4, 0xb8, 0xd3, 0xbc, 0x5b, 0x07, 0x38, 0xbc,
  0xea, 0x3f, 0x8d, 0xbd, 0x87, 0x8c, 0x37, 0xbd, 0x9c, 0xb0, 0x8b, 0xbd,
  0x5d, 0x30, 0x9f, 0x3c, 0xdd, 0x47, 0x67, 0x3e, 0x62, 0x82, 0xa1, 0x3d,
  0x1a, 0x8d, 0x01, 0xbe, 0xb7, 0xd2, 0x33, 0x3e, 0x32, 0x5a, 0xd2, 0x3c,
  0x3d, 0x40, 0xaa, 0x3e, 0x30, 0x02, 0x15, 0x3e, 0x3f, 0xa7, 0x84, 0x3d,
  0x09, 0x0b, 0xcb, 0x3e, 0x30, 0x2a, 0x64, 0x3c, 0x12, 0xda, 0x73, 0xbe,
  0xbd, 0xce, 0x13, 0x3e, 0x44, 0x5a, 0x61, 0x3e, 0x68, 0x83, 0x07, 0xbf,
  0x74, 0x36, 0x25, 0x3e, 0x39, 0xff, 0xfc, 0x3d, 0x70, 0x39, 0x0d, 0x3f,
  0x9b, 0xbb, 0xbc, 0xbd, 0x79, 0x1b, 0xe1, 0xbe, 0xed, 0x2f, 0x77, 0x3d,
  0x0d, 0xbe, 0x5b, 0xbd, 0xae, 0x0c, 0x80, 0xbe, 0x89, 0xac, 0xa6, 0xbd,
  0xa0, 0x70, 0x01, 0xbe, 0xac, 0xa9, 0x77, 0x3e, 0xda, 0x8f, 0x0a, 0x3e,
  0xed, 0xf1, 0x09, 0x3e, 0x22, 0x58, 0x1a, 0xbe, 0xc6, 0xcf, 0xa7, 0x3d,
  0xd4, 0xff, 0x2b, 0xbd, 0xcd, 0x1e, 0x50, 0xbe, 0x73, 0xad, 0xd3, 0xbd,
  0x0a, 0x5c, 0x4a, 0x3e, 0xff, 0xfa, 0x06, 0x3e, 0x4c, 0x02, 0x8b, 0xbe,
  0x1b, 0x8f, 0xb1, 0xbd, 0x76, 0xa8, 0x82, 0x3d, 0x5c, 0xac, 0x5f, 0x3e,
  0x93, 0xf7, 0xcd, 0xbd, 0x07, 0x99, 0x11, 0x3e, 0x01, 0xfc, 0x80, 0xbd,
  0xca, 0xf5, 0xea, 0x3d, 0xf3, 0x9d, 0x39, 0x3d, 0xb5, 0x69, 0x92, 0x3c,
  0xa7, 0xf1, 0x5d, 0xbe, 0xa2, 0x42, 0x0b, 0x3d, 0xc0, 0xfc, 0x5c, 0xbe,
  0x7d, 0x15, 0x14, 0x3e, 0x5c, 0x25, 0xc9, 0xbc, 0x72, 0x96, 0xb3, 0x3b,
  0xa5, 0x33, 0xb2, 0xbb, 0x6a, 0x18, 0x62, 0x3c, 0x3d, 0xef, 0x0c, 0x3d,
  0x22, 0xed, 0x09, 0x3e, 0x92, 0xc7, 0x1a, 0x3d, 0x01, 0x43, 0x4b, 0xbe,
  0x8c, 0x0a, 0x0c, 0x3f, 0xc2, 0x13, 0x73, 0xbe, 0x41, 0x3f, 0xf6, 0xbe,
  0x91, 0xa2, 0xa3, 0x3e, 0x23, 0x46, 0x1a, 0x3e, 0xbb, 0x41, 0xcb, 0xbe,
  0xea, 0x57, 0x27, 0x3e, 0x50, 0xcb, 0x10, 0xbe, 0x3a, 0x02, 0x2c, 0x3d,
  0xb8, 0x18, 0xaa, 0xbe, 0x30, 0xbf, 0xa1, 0x3d, 0xce, 0x04, 0x8a, 0x3e,
  0xec, 0x24, 0x4e, 0xbd, 0xef, 0x85, 0xd8, 0xbe, 0xaa, 0x21, 0x26, 0x3c,
  0x92, 0xdd, 0xd0, 0xbe, 0x5f, 0x51, 0x16, 0xbd, 0x35, 0xd1, 0x9d, 0x3d,
  0xa8, 0xfb, 0xff, 0x3d, 0x1b, 0x15, 0x19, 0x3e, 0x88, 0x4a, 0x94, 0x3e,
  0x9f, 0xb6, 0xce, 0x3e, 0x06, 0xe8, 0x8f, 0x3e, 0x2d, 0xf6, 0x93, 0xbe,
  0x3c, 0xe1, 0x43, 0x3e, 0x66, 0x03, 0x43, 0xbd, 0x8e, 0xd6, 0xf8, 0xbd,
  0x87, 0x02, 0x85, 0x3e, 0x52, 0xfc, 0x92, 0x3e, 0x2a, 0xc6, 0x34, 0x3e,
  0x33, 0xbb, 0x3a, 0x3e, 0x08, 0xf6, 0xe2, 0xbd, 0xee, 0xc2, 0x63, 0x3d,
  0x72, 0x01, 0x83, 0xbe, 0x0d, 0x58, 0x4c, 0x3d, 0x79, 0x09, 0xc5, 0xbd,
  0xa3, 0xd6, 0xac, 0x3e, 0x81, 0xcd, 0xf8, 0x3c, 0x9f, 0xf5, 0x13, 0x3d,
  0xef, 0x95, 0xec, 0xbe, 0xf1, 0xc7, 0x45, 0x3d, 0xff, 0x59, 0x05, 0x3e,
  0x55, 0x60, 0x31, 0xbe, 0x4e, 0xe5, 0xe2, 0x3d, 0x20, 0x98, 0x36, 0x3d,
  0x7d, 0x07, 0x63, 0xbe, 0x48, 0x64, 0x54, 0xbc, 0x04, 0x3f, 0xfd, 0x3d,
  0x44, 0x65, 0x96, 0xbd, 0xb1, 0x5e, 0xa8, 0xbd, 0x01, 0x45, 0x0a, 0x3e,
  0x3f, 0xa1, 0xec, 0x3c, 0xb5, 0x1e, 0x41, 0xbc, 0x77, 0x16, 0xfa, 0x3d,
  0x1c, 0x82, 0x31, 0x3d, 0xa7, 0x70, 0x41, 0xbd, 0xfe, 0x10, 0x96, 0xbe,
  0xbd, 0x0f, 0xfd, 0xbd, 0xfc, 0x47, 0x56, 0x3d, 0xa0, 0xe7, 0xd1, 0x3d,
  0x91, 0x16, 0x82, 0x3d, 0x9d, 0xd4, 0x4a, 0x3d, 0xad, 0xe6, 0xff, 0x3d,
  0x13, 0x68, 0x74, 0xbe, 0x14, 0xaa, 0x84, 0x3d, 0xbd, 0xd9, 0xc8, 0xbd,
  0x6e, 0x25, 0x88, 0xbd, 0x11, 0x97, 0xe8, 0xbb, 0x6c, 0x1d, 0xa0, 0xbd,
  0x63, 0xe3, 0x38, 0xbe, 0x72, 0xec, 0x99, 0xbe, 0x83, 0x0e, 0x4b, 0x3f,
  0x9b, 0xe0, 0xa4, 0x3e, 0xe5, 0xf2, 0xb8, 0x3d, 0x9d, 0xa5, 0x9c, 0xbe,
  0x20, 0x15, 0x66, 0xba, 0xa8, 0x4e, 0xb8, 0xbc, 0x6c, 0xde, 0xa3, 0xbe,
  0x3d, 0x3f, 0x15, 0x3d, 0x2c, 0x6d, 0x0f, 0xbf, 0xf7, 0x41, 0x00, 0x3d,
  0x56, 0x25, 0xcd, 0x3e, 0x02, 0x6e, 0x57, 0x3d, 0xee, 0xc2, 0x83, 0xbe,
  0xc7, 0x30, 0x0a, 0x3e, 0x31, 0x33, 0x5a, 0xbd, 0x40, 0x9f, 0x02, 0x3e,
  0x9d, 0xaf, 0x1b, 0x3e, 0x7e, 0x6f, 0x30, 0x3e, 0x19, 0xcc, 0xe7, 0x3d,
  0xd6, 0xa2, 0x32, 0xbd, 0x6f, 0x74, 0x91, 0xbd, 0xa5, 0x19, 0xc4, 0xbd,
  0xdf, 0x45, 0xe6, 0xbc, 0xcd, 0xe8, 0x85, 0x3e, 0xb5, 0x5b, 0x0d, 0x3f,
  0x42, 0x74, 0x38, 0x3d, 0xff, 0xa1, 0x45, 0xbe, 0x69, 0x8e, 0x1f, 0xbe,
  0x65, 0x84, 0x36, 0xbd, 0x6f, 0x1f, 0x11, 0xbc, 0x88, 0xf8, 0x0a, 0xbe,
  0x18, 0xa9, 0x34, 0xbe, 0xa8, 0x2c, 0xba, 0xbe, 0xa8, 0xd7, 0x87, 0xbd,
  0x82, 0xf4, 0x82, 0x3e, 0xe0, 0x4b, 0x41, 0x3e, 0x97, 0x17, 0x32, 0x3e,
  0xa6, 0xfa, 0x47, 0x3e, 0x20, 0xab, 0xbb, 0xbd, 0xa5, 0xba, 0x59, 0xbc,
  0x48, 0xe6, 0x3c, 0x3d, 0xb7, 0xc8, 0x02, 0x3e, 0x0f, 0xbe, 0x41, 0xbc,
  0xd8, 0xee, 0x88, 0xbe, 0xb6, 0x0d, 0x0a, 0x3e, 0xf8, 0xcc, 0xce, 0xbd,
  0xed, 0x22, 0x1c, 0x3e, 0xff, 0x58, 0x13, 0xbd, 0x5b, 0x4a, 0x37, 0xbd,
  0x24, 0xc5, 0x8c, 0x3d, 0xa0, 0xaf, 0x54, 0xbd, 0x57, 0x50, 0x98, 0x3d,
  0x96, 0x64, 0x0a, 0x3e, 0xc8, 0xb1, 0x04, 0xbd, 0xcd, 0x54, 0x15, 0xbe,
  0x17, 0x00, 0x29, 0x3e, 0x9c, 0x86, 0xf3, 0x3d, 0xc9, 0xce, 0xf9, 0xbd,
  0x6d, 0x0b, 0xdf, 0xbe, 0x17, 0xd8, 0x45, 0xbf, 0x36, 0x28, 0xbe, 0x3d,
  0xe8, 0x79, 0xed, 0x3c, 0xd4, 0x63, 0x40, 0xbb, 0x73, 0xbd, 0x8c, 0xbb,
  0x6e, 0xce, 0xae, 0x3d, 0xd1, 0xa0, 0xde, 0x3c, 0x1f, 0xb2, 0x2f, 0x3e,
  0x20, 0x09, 0x36, 0x3d, 0x23, 0xa5, 0x73, 0x3d, 0x06, 0x4b, 0x2f, 0xbd,
  0x8e, 0x6b, 0xa7, 0x3c, 0x24, 0x19, 0x14, 0xbd, 0xe0, 0x67, 0x90, 0x3e,
  0xd3, 0x8b, 0x05, 0xbe, 0xbf, 0x59, 0x31, 0x3e, 0x46, 0x48, 0x4c, 0xbe,
  0xc0, 0x9e, 0xfa, 0x3d, 0xf6, 0x1a, 0x98, 0x3d, 0x85, 0x3f, 0xeb, 0x3c,
  0xa0, 0x8a, 0xe2, 0xbc, 0x43, 0x66, 0xb8, 0xbd, 0xe6, 0x24, 0x80, 0x3e,
  0xc5, 0x9f, 0x59, 0xbe, 0xc2, 0x39, 0x36, 0x3e, 0x15, 0x3a, 0xcc, 0xbe,
  0x31, 0xef, 0x8a, 0xbd, 0xa0, 0x0f, 0xaa, 0x3e, 0x45, 0x20, 0x37, 0xbe,
  0x89, 0x83, 0x74, 0xbe, 0xa1, 0x65, 0x98, 0x3e, 0xc4, 0x0a, 0x3c, 0x3e,
  0xba, 0x6c, 0x5c, 0xbe, 0x42, 0x61, 0x1c, 0xbe, 0xe4, 0xb5, 0xf3, 0x3d,
  0xaf, 0x86, 0x70, 0xbe, 0x8d, 0xa8, 0x59, 0xbd, 0x99, 0xd9, 0x65, 0x3e,
  0x2c, 0xcb, 0x85, 0x3d, 0x4f, 0xf1, 0x96, 0x3d, 0x42, 0x97, 0xbb, 0x3c,
  0x03, 0x0f, 0x17, 0x3e, 0x74, 0x05, 0x81, 0x3d, 0x42, 0x5f, 0xdd, 0xbe,
  0xb6, 0x5c, 0x93, 0x3d, 0x75, 0x0b, 0x59, 0xbb, 0x38, 0xfb, 0x8e, 0xbd,
  0xe0, 0xdb, 0xab, 0xbe, 0x54, 0x74, 0xc9, 0x3d, 0xd4, 0x90, 0x4d, 0x3e,
  0xf9, 0x0e, 0xc9, 0xbb, 0x9d, 0x90, 0x12, 0xbe, 0x23, 0x18, 0xb8, 0xbc,
  0x33, 0x90, 0xbd, 0x3d, 0x7a, 0x9b, 0xb8, 0x3e, 0xc0, 0xe6, 0x91, 0xbb,
  0x06, 0xa0, 0x3f, 0x3e, 0xde, 0x03, 0xd4, 0x3d, 0x8f, 0xf1, 0x81, 0xbd,
  0x82, 0x3e, 0xdd, 0xbc, 0xcb, 0x00, 0x1a, 0xbd, 0x88, 0x59, 0x85, 0x3b,
  0x44, 0xae, 0x05, 0xbe, 0xd0, 0x82, 0x22, 0x3e, 0xee, 0x15, 0xb8, 0xbd,
  0x45, 0xef, 0xb1, 0xbd, 0x6b, 0xf1, 0x00, 0x3d, 0x7f, 0xaa, 0x5f, 0xbc,
  0x65, 0x35, 0x23, 0x3e, 0xf8, 0x12, 0xe0, 0xbd, 0x14, 0x3b, 0xd2, 0x3c,
  0xef, 0x8a, 0x2a, 0xbe, 0x9d, 0x23, 0xec, 0x3d, 0x86, 0xc3, 0x37, 0xbe,
  0x7e, 0x37, 0x1e, 0xbe, 0x10, 0x9a, 0xf5, 0x3c, 0x15, 0x75, 0xf1, 0xbd,
  0xd8, 0x71, 0xbb, 0xbd, 0xfc, 0x69, 0x6a, 0x3d, 0xff, 0x9a, 0x34, 0x3e,
  0x0c, 0xcf, 0x4f, 0x3e, 0x4d, 0x3d, 0xc4, 0x3c, 0x78, 0xf8, 0x32, 0x3e,
  0xee, 0xb4, 0xaa, 0x3d, 0x2c, 0x71, 0x76, 0x3e, 0x18, 0x46, 0x48, 0xbe,
  0x29, 0x0a, 0x26, 0x3e, 0x7f, 0x73, 0x88, 0xbe, 0x4f, 0x2a, 0x42, 0x3d,
  0x1d, 0x2c, 0x96, 0xbb, 0x00, 0xc3, 0x37, 0xbe, 0x5a, 0xf2, 0xa2, 0x3d,
  0xbc, 0x6f, 0x4c, 0xbd, 0x7b, 0x14, 0x39, 0xbf, 0x87, 0xa8, 0x72, 0x3e,
  0x89, 0x95, 0x03, 0x3e, 0x5d, 0x61, 0x5c, 0x3e, 0x41, 0x79, 0x19, 0x3e,
  0x5e, 0x2f, 0x93, 0x3e, 0xa6, 0x23, 0xb5, 0xbe, 0x81, 0x91, 0x7a, 0xbe,
  0x05, 0x77, 0xeb, 0x3e, 0x60, 0xea, 0xfa, 0x3d, 0xd1, 0x68, 0xa9, 0x3c,
  0xae, 0x1d, 0xad, 0x3e, 0x71, 0xc3, 0x83, 0x3d, 0x1b, 0xf6, 0x57, 0xbd,
  0xcb, 0x99, 0x7f, 0x3d, 0x50, 0xfa, 0xd0, 0x3c, 0x44, 0x50, 0x81, 0x3d,
  0x5e, 0x48, 0x1f, 0x3e, 0x99, 0x1b, 0x6b, 0xbe, 0x70, 0x1c, 0x68, 0xbd,
  0x94, 0x4d, 0xf9, 0x3d, 0x3e, 0xd2, 0x93, 0x3d, 0x0e, 0x1f, 0xb9, 0xbd,
  0x26, 0x2f, 0x3d, 0xbe, 0xba, 0xee, 0x1e, 0xbf, 0x4e, 0xd0, 0x07, 0x3e,
  0x13, 0xca, 0x94, 0x3e, 0x5b, 0x63, 0x23, 0x3e, 0x1e, 0xd1, 0x80, 0x3d,
  0xbb, 0xb8, 0x39, 0x3e, 0x36, 0x3e, 0x05, 0xbd, 0x21, 0xfe, 0x30, 0xbd,
  0x91, 0xc3, 0x1c, 0x3f, 0xdb, 0xaa, 0xde, 0x3d, 0x4f, 0x98, 0xc7, 0x3e,
  0xbc, 0x92, 0xa5, 0xbe, 0xea, 0x42, 0x03, 0x3d, 0xa0, 0x05, 0xcb, 0x3c,
  0x44, 0xec, 0xc0, 0xbe, 0x77, 0xce, 0xa9, 0x3e, 0xec, 0x90, 0xe6, 0x3e,
  0xfd, 0xea, 0x42, 0x3c, 0xe0, 0xec, 0xfa, 0xbd, 0xb0, 0x2f, 0x8f, 0xbd,
  0x8a, 0x80, 0xc9, 0x3d, 0xaf, 0x49, 0x32, 0xbe, 0x9f, 0xbd, 0x6f, 0xbc,
  0x3c, 0xdc, 0x93, 0xbe, 0xa6, 0x87, 0x88, 0x3e, 0xc7, 0xc7, 0x24, 0x3e,
  0x9f, 0x90, 0x1a, 0x3e, 0x34, 0xcf, 0xbb, 0x3d, 0xc7, 0x9b, 0x12, 0x3e,
  0x27, 0xad, 0xa2, 0x3e, 0x22, 0x50, 0x5f, 0xbe, 0xa7, 0xa7, 0xe2, 0x3d,
  0x9a, 0xfa, 0x44, 0xbe, 0x2c, 0x23, 0xde, 0x3c, 0x5f, 0xe1, 0x12, 0xbd,
  0xb9, 0xf4, 0xd0, 0xbd, 0xa5, 0xa3, 0x8e, 0xb9, 0xcc, 0xfe, 0xec, 0xbd,
  0xe9, 0xd7, 0xf1, 0xbd, 0x54, 0x3a, 0x45, 0x3e, 0x32, 0x2e, 0x63, 0x3e,
  0xe4, 0x5d, 0xc4, 0xbd, 0x5e, 0xad, 0xca, 0xbd, 0xce, 0x3a, 0x5b, 0x3d,
  0x4a, 0x41, 0xe8, 0xba, 0xbf, 0x67, 0xbd, 0xbd, 0xe1, 0xc0, 0x15, 0xbd,
  0x0b, 0x68, 0x8c, 0xbe, 0x22, 0x27, 0x8c, 0xbd, 0x50, 0xb0, 0x70, 0x3e,
  0xb4, 0xf6, 0x17, 0x3e, 0xbf, 0x15, 0x38, 0x3e, 0x77, 0x15, 0xc5, 0x3d,
  0x1e, 0x0a, 0x02, 0xbd, 0x76, 0x17, 0xb0, 0xbd, 0x95, 0x81, 0xa5, 0x3e,
  0xeb, 0x19, 0x52, 0xbc, 0x7e, 0xdb, 0x19, 0x3e, 0xcd, 0x42, 0x5b, 0xbd,
  0x4d, 0x24, 0x01, 0x3e, 0x7c, 0x0e, 0x0d, 0x3e, 0xe8, 0xdf, 0x17, 0xbd,
  0x94, 0xa8, 0x92, 0xbe, 0x36, 0xcc, 0x67, 0xbe, 0x70, 0x17, 0x8b, 0xbd,
  0x5f, 0x78, 0x2a, 0xbd, 0xe4, 0xbe, 0xa9, 0xbd, 0x9c, 0xf9, 0x7c, 0xbe,
  0xe5, 0xed, 0x5d, 0xbe, 0x62, 0x31, 0x5c, 0xbe, 0x01, 0x83, 0x3b, 0x3e,
  0x00, 0x74, 0x95, 0xbc, 0x26, 0x75, 0x86, 0xbd, 0x38, 0x82, 0x39, 0xbd,
  0x1f, 0x10, 0x2b, 0x3e, 0x11, 0x3f, 0xd3, 0x3e, 0x32, 0xdc, 0x2e, 0xbb,
  0xc8, 0x8b, 0x49, 0x3e, 0xac, 0x03, 0x98, 0x3e, 0xe2, 0x1b, 0x14, 0x3e,
  0x7f, 0x7b, 0xfa, 0xbd, 0x13, 0x67, 0x0b, 0x3e, 0x7f, 0xd5, 0xe4, 0xbe,
  0xbe, 0xd8, 0x7b, 0x3e, 0x58, 0xe7, 0xf1, 0xbc, 0x37, 0x69, 0xd8, 0x3c,
  0x17, 0x7f, 0x8e, 0x3e, 0xec, 0x51, 0x73, 0xbd, 0x39, 0x66, 0xc2, 0x3d,
  0xb7, 0x5e, 0xa9, 0x3d, 0x0d, 0x9d, 0xb0, 0x3c, 0xbd, 0x92, 0xde, 0xbd,
  0x99, 0x9f, 0x60, 0x3e, 0x90, 0x49, 0xc6, 0xbd, 0xa6, 0xd8, 0x15, 0xbd,
  0x45, 0x1d, 0x36, 0xbe, 0x86, 0x09, 0x48, 0x3e, 0x9b, 0xf2, 0x94, 0xbc,
  0x14, 0xfa, 0xff, 0xbd, 0xca, 0xb3, 0x8a, 0xbe, 0x2b, 0x95, 0xcf, 0x3d,
  0xd1, 0xca, 0x5e, 0xbe, 0xdb, 0xdf, 0xce, 0x3d, 0x9b, 0x1d, 0x43, 0x3d,
  0x6e, 0x5f, 0x81, 0x3e, 0xdc, 0xae, 0x84, 0xbd, 0x5d, 0x08, 0x92, 0xbe,
  0xf5, 0xa1, 0x30, 0x3e, 0xcb, 0x7a, 0x17, 0xbe, 0x93, 0x2c, 0x82, 0x3c,
  0xbd, 0x08, 0xbd, 0x3d, 0x76, 0x36, 0x3e, 0xbe, 0x13, 0x8a, 0x9b, 0x3e,
  0xe6, 0x15, 0x06, 0x3e, 0x01, 0xc7, 0xec, 0x3d, 0xc5, 0x9b, 0x23, 0x3e,
  0x34, 0x70, 0xbe, 0x3e, 0x42, 0x34, 0x37, 0xbe, 0x15, 0xff, 0x59, 0x3e,
  0xfe, 0x0d, 0xea, 0x3d, 0xe4, 0xbb, 0x1c, 0xbe, 0x22, 0xdf, 0x43, 0x3e,
  0xd4, 0x11, 0x30, 0xbe, 0x24, 0xfd, 0x84, 0x3e, 0xe6, 0x78, 0xe7, 0xbd,
  0xd0, 0x4c, 0x13, 0x3b, 0xbc, 0xab, 0x21, 0x3e, 0x9d, 0x72, 0x08, 0xbe,
  0xf4, 0x4f, 0x64, 0x3e, 0x2d, 0x72, 0x1a, 0xbe, 0x3d, 0x1e, 0xda, 0x3d,
  0x8c, 0x73, 0xc4, 0x3d, 0xd7, 0x8a, 0x26, 0x3e, 0xb6, 0x03, 0x2a, 0xbe,
  0xa9, 0xa9, 0x51, 0xbe, 0x48, 0x28, 0x36, 0x3e, 0x8b, 0x2d, 0x59, 0xbd,
  0x47, 0xe8, 0x66, 0xbe, 0x5e, 0x5f, 0x26, 0xbd, 0x28, 0xd1, 0x4b, 0x3e,
  0x8f, 0xef, 0xc8, 0xbe, 0x3c, 0xca, 0xa2, 0xbd, 0x74, 0x85, 0xf0, 0xbc,
  0x16, 0xc1, 0x0c, 0x3e, 0xb0, 0x2d, 0xb5, 0xbe, 0xb2, 0x5c, 0x04, 0xbf,
  0xf2, 0xa4, 0xea, 0xbd, 0xfa, 0xb2, 0xab, 0x3d, 0xac, 0x1f, 0xac, 0xbd,
  0x00, 0xd9, 0xc5, 0x3d, 0x70, 0xbd, 0xd8, 0xbc, 0xe7, 0x1d, 0x2f, 0xbe,
  0xa8, 0xe8, 0xb1, 0xbe, 0xab, 0xd4, 0xb8, 0x3c, 0x03, 0x83, 0x8b, 0xbd,
  0x8e, 0x72, 0x0c, 0xbd, 0xf1, 0xe3, 0x93, 0xbe, 0x26, 0x37, 0xfc, 0xbc,
  0xb4, 0x55, 0xa3, 0xbd, 0xb8, 0x62, 0x2e, 0xbd, 0x21, 0x74, 0xb8, 0x3c,
  0x01, 0x6b, 0x5f, 0xbe, 0x08, 0x67, 0x6a, 0x3d, 0xc0, 0xbe, 0x68, 0xbc,
  0x11, 0x62, 0x0c, 0x3e, 0xbc, 0x05, 0xa1, 0x3d, 0xda, 0xff, 0x86, 0x3d,
  0x1a, 0x33, 0x06, 0x3e, 0x8f, 0x66, 0xb0, 0x3c, 0x95, 0x61, 0xd5, 0x3c,
  0x65, 0x6f, 0xd4, 0x3a, 0x65, 0x4a, 0xea, 0x3d, 0xb1, 0x11, 0x38, 0xbe,
  0xbf, 0x70, 0xb5, 0xbd, 0xcd, 0x11, 0x48, 0xbe, 0xf6, 0x08, 0x32, 0xbd,
  0xa3, 0xde, 0xc3, 0xbd, 0x5e, 0xef, 0x2f, 0xbe, 0x7b, 0xe2, 0x2b, 0xbe,
  0xbe, 0xd3, 0x0e, 0xbe, 0x1f, 0xc7, 0x38, 0xbe, 0xf9, 0xdd, 0x41, 0xbe,
  0xd9, 0xe4, 0x0f, 0xbe, 0xed, 0x4c, 0x87, 0x3d, 0x48, 0xf5, 0x64, 0xbd,
  0xe6, 0x5f, 0x31, 0x3f, 0xe7, 0xd2, 0x23, 0x3e, 0x18, 0xde, 0x77, 0xbe,
  0xb7, 0x40, 0x2d, 0xbd, 0xfd, 0x8f, 0xfc, 0xbd, 0x90, 0x6d, 0x99, 0x3d,
  0x99, 0xb9, 0xcb, 0xbb, 0x3e, 0x14, 0x6b, 0x3e, 0x4a, 0x93, 0x01, 0xbe,
  0x63, 0xd9, 0x5a, 0xbc, 0xc8, 0x44, 0x1d, 0xbe, 0x7e, 0x09, 0x99, 0x3d,
  0xee, 0xca, 0x6f, 0xbc, 0x82, 0xed, 0xfe, 0x3d, 0x9c, 0xd5, 0x12, 0xbd,
  0x52, 0x07, 0x88, 0xbd, 0x0f, 0x72, 0x09, 0x3e, 0x54, 0xbf, 0x43, 0xbe,
  0x14, 0x5b, 0x90, 0x3d, 0xad, 0xc0, 0x9b, 0x3e, 0x44, 0x65, 0xb4, 0xbd,
  0xf5, 0x9e, 0xf0, 0x3e, 0xd9, 0xee, 0xc9, 0x3d, 0x2c, 0xc0, 0x16, 0xbe,
  0xd7, 0x33, 0x8f, 0x3e, 0x39, 0x8a, 0xa5, 0xbc, 0xe2, 0xbc, 0xa0, 0xbe,
  0xb6, 0xda, 0x97, 0xbd, 0xc0, 0x79, 0x0e, 0xbd, 0x72, 0x05, 0x15, 0xbe,
  0x85, 0x2c, 0x39, 0x3d, 0x8a, 0x7d, 0x22, 0xbd, 0xfc, 0x64, 0x46, 0xbe,
  0x5c, 0xb6, 0x03, 0xbc, 0x45, 0x01, 0x1d, 0x3e, 0xd0, 0x54, 0x27, 0xbe,
  0xd4, 0x25, 0x1c, 0xbe, 0x35, 0x55, 0x87, 0x3e, 0xa2, 0x50, 0xe5, 0x3c,
  0x24, 0x17, 0x8d, 0x3d, 0x9b, 0x4c, 0x7a, 0x3d, 0x96, 0xcd, 0x52, 0x3e,
  0x87, 0xeb, 0x4c, 0x3e, 0xa1, 0xc6, 0x7e, 0xbe, 0xd2, 0x65, 0x36, 0xbe,
  0xac, 0xce, 0xed, 0x3b, 0xc2, 0xa8, 0x0a, 0xbc, 0x57, 0x70, 0x6d, 0xbd,
  0x67, 0x29, 0x45, 0x3d, 0x56, 0x72, 0xa3, 0x3d, 0xd6, 0x3c, 0x02, 0xbc,
  0xb4, 0x46, 0xdc, 0x3d, 0x66, 0xe5, 0x2e, 0xbd, 0xac, 0x1c, 0x20, 0xbe,
  0xfc, 0x45, 0xc0, 0x3d, 0x6b, 0x3d, 0x97, 0xbd, 0xdd, 0xbe, 0xc4, 0xbb,
  0x9c, 0x3a, 0x89, 0xbd, 0x70, 0x71, 0x16, 0x3d, 0x4c, 0x2b, 0xe5, 0xbd,
  0x8b, 0x9b, 0x89, 0xbd, 0x0a, 0xc2, 0x4b, 0xbe, 0x56, 0xf5, 0x06, 0x3e,
  0x3f, 0x0a, 0xd0, 0xbd, 0x6c, 0xfd, 0x4c, 0xbd, 0x70, 0x75, 0xf6, 0xbd,
  0xc3, 0x54, 0x13, 0xbe, 0xae, 0x4a, 0xad, 0xbd, 0x06, 0xda, 0x0a, 0xbe,
  0xe1, 0x2a, 0xba, 0xbd, 0x5f, 0xa4, 0x06, 0x3d, 0xe8, 0xed, 0x6e, 0x3e,
  0x43, 0xac, 0x0b, 0xbe, 0x01, 0x1f, 0x2e, 0xbd, 0xf3, 0x5f, 0xab, 0xbe,
  0x9f, 0xdf, 0xfe, 0x3c, 0xa2, 0x22, 0x3a, 0xbe, 0xe2, 0x4b, 0x6b, 0x3e,
  0xd5, 0xb5, 0x0a, 0xbc, 0xce, 0xe0, 0x07, 0xbe, 0xca, 0x94, 0xaa, 0xbe,
  0x6d, 0x66, 0x2a, 0xbe, 0x44, 0x75, 0x7b, 0x3e, 0x5d, 0x12, 0x87, 0x3e,
  0x94, 0x5b, 0xe1, 0xbd, 0x5e, 0x0f, 0xcc, 0xbd, 0x81, 0x06, 0x0a, 0xbc,
  0xbc, 0x65, 0x24, 0xbe, 0x97, 0x9d, 0x14, 0xbf, 0xb9, 0x06, 0x99, 0xbb,
  0x29, 0x3e, 0xd8, 0xbd, 0xbe, 0x1c, 0x4c, 0x3e, 0x51, 0xd4, 0xa6, 0xbd,
  0x4e, 0xd8, 0x10, 0xbe, 0x91, 0x3b, 0xe6, 0x3d, 0x4e, 0x1b, 0xcc, 0xbc,
  0xca, 0xf0, 0x01, 0x3e, 0x16, 0x10, 0x47, 0xbe, 0x53, 0x41, 0xa4, 0xbe,
  0x7a, 0xb3, 0x00, 0x3e, 0x11, 0xb9, 0xa9, 0xbd, 0x77, 0x89, 0xef, 0x3e,
  0xd2, 0xe9, 0xf2, 0x3b, 0x0f, 0x1e, 0x95, 0x3e, 0x8a, 0x0d, 0x60, 0xbe,
  0x67, 0x9f, 0xd1, 0x3d, 0xa8, 0xde, 0x3f, 0xbe, 0x63, 0xc6, 0x84, 0x3d,
  0x87, 0xca, 0x20, 0xbe, 0x8e, 0xf5, 0xbc, 0x3e, 0xba, 0x4d, 0x5f, 0xbe,
  0x3b, 0xe5, 0x91, 0x3d, 0x79, 0x50, 0x8a, 0xbe, 0x17, 0x24, 0x7a, 0xbe,
  0x35, 0x77, 0xa2, 0xbe, 0x6a, 0xbb, 0xa5, 0x3d, 0x3a, 0xc9, 0xcf, 0x3d,
  0xef, 0xfa, 0x08, 0xbe, 0xb1, 0x69, 0x69, 0xbe, 0xbf, 0xdb, 0x7a, 0xbe,
  0x66, 0x28, 0xcb, 0x3d, 0x54, 0x4f, 0x23, 0x3e, 0xcb, 0x48, 0xdc, 0xbd,
  0xcc, 0xdf, 0x13, 0xbe, 0x33, 0xa0, 0x0e, 0xbe, 0xfb, 0xa0, 0xe1, 0x3d,
  0xf8, 0x95, 0x3f, 0x3e, 0x13, 0x61, 0x52, 0x3e, 0x76, 0xe5, 0xe4, 0x3e,
  0x82, 0x72, 0xc8, 0x3d, 0x9c, 0x86, 0xaa, 0xbe, 0xc5, 0x35, 0x64, 0x3e,
  0xbb, 0xf6, 0x9c, 0x3d, 0xe0, 0x15, 0xa4, 0x3d, 0x93, 0xf0, 0x5a, 0x3e,
  0x36, 0x50, 0x27, 0xbd, 0xe0, 0xae, 0x91, 0xbe, 0x23, 0xee, 0x14, 0xbe,
  0xca, 0x75, 0x14, 0xbd, 0x36, 0x79, 0x9a, 0xbd, 0xe4, 0xdb, 0xb1, 0xbd,
  0x8b, 0x85, 0xbd, 0xbd, 0x75, 0xd7, 0xa3, 0xbe, 0xd0, 0x17, 0x4f, 0xbe,
  0x98, 0xf7, 0x2f, 0xbe, 0x0b, 0x75, 0x67, 0xbd, 0x8b, 0xaf, 0x21, 0xbf,
  0xae, 0x1c, 0xed, 0xbc, 0x80, 0x61, 0x81, 0xbe, 0x8d, 0x3b, 0xee, 0x3d,
  0x43, 0x0b, 0x82, 0x3e, 0x54, 0x51, 0x3e, 0xbe, 0xed, 0xad, 0x76, 0x3d,
  0x17, 0x34, 0x50, 0xbe, 0x06, 0x61, 0xb2, 0x3e, 0x39, 0x0e, 0xb5, 0x3d,
  0x1b, 0x57, 0x06, 0xbe, 0xb5, 0x8a, 0x53, 0xbc, 0x98, 0x74, 0x98, 0x3e,
  0xed, 0xc7, 0x28, 0x3a, 0x75, 0x04, 0x8f, 0xbe, 0xa1, 0xeb, 0x00, 0xbc,
  0x28, 0x61, 0x3b, 0x3f, 0x6d, 0xd9, 0xae, 0xbb, 0x43, 0xce, 0xcb, 0xbd,
  0xfb, 0x2a, 0x75, 0xbe, 0xbd, 0xdd, 0xbe, 0x3c, 0xb6, 0x2f, 0xf5, 0x3d,
  0x17, 0x86, 0x9f, 0x3d, 0xb3, 0x4a, 0xcc, 0x3d, 0xae, 0xc2, 0x00, 0xbe,
  0xa3, 0xae, 0xd8, 0x3d, 0x54, 0x58, 0x0a, 0x3d, 0x14, 0x82, 0x11, 0x3d,
  0x2c, 0xcd, 0x62, 0xbb, 0x31, 0xa9, 0xe0, 0xbc, 0x67, 0x32, 0x9f, 0xbc,
  0xc6, 0xef, 0x16, 0xbe, 0x6c, 0x81, 0xd7, 0x3e, 0x1f, 0xb7, 0xcf, 0xbc,
  0x8f, 0xaf, 0xa1, 0xbd, 0x10, 0x70, 0xbf, 0xbd, 0xbd, 0x3c, 0x05, 0x3c,
  0x60, 0x05, 0x13, 0xbe, 0x4d, 0xd9, 0x16, 0x3b, 0x90, 0xa6, 0xa6, 0xbd,
  0x92, 0xaf, 0xd2, 0xbd, 0x8f, 0x7e, 0x92, 0xbd, 0x49, 0xa9, 0x00, 0x3d,
  0x97, 0xbc, 0xc4, 0xbd, 0xaf, 0x6c, 0x1b, 0xbd, 0xf2, 0xc9, 0x8d, 0x3c,
  0x52, 0xe1, 0x97, 0x3d, 0x33, 0x51, 0x13, 0xbe, 0x08, 0x56, 0xdf, 0x3d,
  0x04, 0xbd, 0x7b, 0x3c, 0x50, 0xc6, 0x1f, 0xbe, 0x35, 0x34, 0x43, 0x3b,
  0x8b, 0x29, 0x3f, 0xbe, 0xdc, 0x87, 0xf5, 0x3b, 0x87, 0x10, 0xe2, 0xbd,
  0xd0, 0x67, 0xfd, 0xbd, 0x07, 0x1e, 0x8d, 0xbd, 0xf5, 0x4c, 0xb8, 0xbd,
  0x95, 0x1f, 0x60, 0xbe, 0x97, 0x1f, 0x32, 0xbe, 0xd4, 0x7b, 0xb2, 0xbd,
  0xb3, 0x12, 0x0b, 0xbe, 0xd1, 0x78, 0x9b, 0x3c, 0x56, 0xc3, 0xa0, 0xbc,
  0x3f, 0x54, 0x2a, 0xbe, 0x12, 0xf6, 0x2d, 0xbe, 0x10, 0x40, 0x08, 0xbe,
  0x6c, 0x99, 0xa0, 0xbd, 0x8b, 0xc1, 0x8d, 0x3c, 0x56, 0x73, 0x1e, 0xbe,
  0x72, 0x75, 0xce, 0xbd, 0x36, 0xcb, 0x10, 0xbe, 0xcd, 0x6a, 0x1e, 0xbe,
  0x5b, 0x1d, 0x9b, 0xbe, 0xd1, 0xc1, 0xae, 0x3d, 0x37, 0x13, 0x33, 0x3e,
  0x73, 0xfc, 0xfd, 0xbc, 0xba, 0x33, 0xa1, 0xbe, 0x0d, 0xe4, 0xea, 0x3c,
  0x3e, 0x03, 0x47, 0x3d, 0x9e, 0x01, 0xa6, 0x3e, 0x97, 0xdf, 0xd9, 0xbe,
  0xe3, 0xf9, 0x99, 0xbe, 0xd4, 0x98, 0x8a, 0x3e, 0x8a, 0xa3, 0x54, 0xbd,
  0x2e, 0xf5, 0x85, 0x3c, 0x9c, 0x56, 0x0a, 0xbe, 0x8b, 0xb7, 0x31, 0xbc,
  0x32, 0xed, 0xd6, 0xbd, 0xc7, 0xcb, 0xb9, 0x3d, 0xff, 0x9d, 0x04, 0x3d,
  0x2e, 0xc8, 0x0a, 0xbe, 0xf5, 0x88, 0xcc, 0xbd, 0x16, 0x2a, 0xab, 0x3d,
  0xd9, 0x33, 0xfd, 0xbc, 0x7c, 0xb8, 0x3f, 0xbd, 0xf7, 0x4c, 0xd5, 0x3d,
  0x11, 0x03, 0x4e, 0x3c, 0xb2, 0x4a, 0x49, 0x3c, 0x2d, 0x79, 0x11, 0xbe,
  0x45, 0x76, 0x56, 0xbd, 0x89, 0x35, 0xb1, 0x3d, 0xec, 0x09, 0xaf, 0xbe,
  0x9e, 0xbb, 0xc1, 0x3d, 0x3f, 0x92, 0x87, 0xbe, 0xbe, 0x05, 0xd1, 0x3d,
  0xf3, 0x66, 0x7a, 0xbd, 0x93, 0x1a, 0x94, 0xbc, 0x36, 0x7f, 0xad, 0x3d,
  0xb3, 0xa7, 0x3b, 0xbe, 0xda, 0x0f, 0xbd, 0x3d, 0xec, 0xde, 0x73, 0xbe,
  0x54, 0x2b, 0x24, 0xbe, 0xa6, 0xe2, 0xf7, 0x3d, 0x58, 0xf1, 0x0d, 0xbe,
  0xd1, 0xf1, 0x3c, 0xbe, 0xfc, 0x84, 0x1b, 0xbe, 0xa0, 0x8d, 0x41, 0xbd,
  0x79, 0xf1, 0x71, 0x3d, 0x90, 0xfd, 0x85, 0x3d, 0x8e, 0x0d, 0x36, 0xbc,
  0xdf, 0x0e, 0x8a, 0xbd, 0x53, 0xc2, 0x24, 0xbe, 0x03, 0x88, 0x04, 0xbe,
  0x01, 0x79, 0x57, 0xbe, 0x92, 0x6e, 0xb1, 0x3c, 0x36, 0xd8, 0x72, 0x3d,
  0xbf, 0xfa, 0x29, 0xbe, 0x84, 0x1d, 0x01, 0xbe, 0x2d, 0x47, 0xcb, 0xbd,
  0xf0, 0x09, 0x8b, 0xbd, 0xc6, 0xce, 0x76, 0xbe, 0xb8, 0xc3, 0x2a, 0xbe,
  0xf2, 0xde, 0x44, 0xbe, 0x7b, 0x11, 0x41, 0xbe, 0x88, 0x45, 0x60, 0x3d,
  0x0a, 0xc8, 0xbe, 0xbd, 0xfb, 0x73, 0x5a, 0xbe, 0xe8, 0x22, 0xf7, 0xbc,
  0x45, 0x2a, 0xab, 0x3e, 0x99, 0x38, 0x20, 0x3e, 0xc7, 0x8a, 0xda, 0xbe,
  0x7b, 0xd4, 0x2e, 0xbe, 0xbd, 0xe3, 0xb5, 0x3d, 0x20, 0xde, 0x38, 0x3e,
  0x9a, 0x91, 0xaa, 0x3d, 0x9f, 0xc1, 0x3e, 0xbc, 0x0b, 0xc1, 0x2f, 0xbf,
  0x49, 0x00, 0x21, 0xbe, 0x92, 0x7f, 0x2e, 0x3f, 0xbf, 0x01, 0x5b, 0x3d,
  0xe6, 0x36, 0x39, 0x3e, 0x1f, 0x16, 0x80, 0x3d, 0xea, 0x62, 0x2c, 0xbd,
  0xea, 0x8c, 0x3b, 0xbe, 0xab, 0x69, 0x91, 0x3e, 0x3c, 0x79, 0x5b, 0x3e,
  0xaf, 0x27, 0x02, 0xbf, 0x2b, 0x12, 0x9a, 0x3e, 0x2a, 0xe2, 0x98, 0xbe,
  0x27, 0x14, 0xa5, 0xbe, 0xec, 0xe2, 0x78, 0x3d, 0x48, 0x18, 0x68, 0xbd,
  0x49, 0xab, 0x63, 0x3e, 0x60, 0x10, 0x1b, 0xbd, 0xe1, 0x1c, 0x2d, 0xbd,
  0x51, 0x06, 0x91, 0xbe, 0x7a, 0x8c, 0xd2, 0x3d, 0x3f, 0x81, 0x76, 0xbe,
  0x22, 0xdc, 0x4f, 0xbd, 0x8e, 0x10, 0x8b, 0x3e, 0xc8, 0x73, 0xa5, 0xbe,
  0x6b, 0x6f, 0x01, 0xbd, 0xc2, 0x7e, 0xac, 0x3e, 0x83, 0x19, 0xf4, 0x3d,
  0x4b, 0xdb, 0x49, 0x3d, 0x68, 0x16, 0x97, 0x3e, 0x56, 0x94, 0xde, 0x3d,
  0x7c, 0xd9, 0x62, 0x3d, 0x7e, 0x16, 0x1e, 0x3d, 0xbf, 0x8a, 0xc2, 0x3c,
  0xca, 0xc7, 0x24, 0xbf, 0xe9, 0x4c, 0xd4, 0x3d, 0x9a, 0x42, 0x21, 0xbe,
  0x35, 0x04, 0x4f, 0xbb, 0x4b, 0x66, 0xc6, 0xbd, 0xe8, 0x3a, 0x85, 0x3a,
  0x11, 0x1d, 0x8e, 0xbe, 0x94, 0xd4, 0x3f, 0x3d, 0x1c, 0xcc, 0x35, 0x3e,
  0xbf, 0xd2, 0x34, 0x3d, 0xca, 0x58, 0x71, 0x3c, 0x0c, 0x1b, 0xc5, 0x3a,
  0x02, 0xdc, 0x0b, 0x3e, 0xf4, 0xd6, 0x36, 0xbd, 0xe9, 0x17, 0xb7, 0x3e,
  0x76, 0x1e, 0x79, 0xbe, 0x41, 0x0f, 0xb3, 0x3d, 0x39, 0x28, 0x07, 0xbd,
  0xc2, 0x54, 0xc6, 0xbd, 0x96, 0xa6, 0xe1, 0x3e, 0x52, 0x2b, 0xb0, 0x3d,
  0xd0, 0x09, 0x07, 0xbe, 0x74, 0x6e, 0x7d, 0x3e, 0x37, 0x38, 0x18, 0xba,
  0x50, 0x8e, 0xf0, 0xbd, 0x58, 0x5b, 0x00, 0x3e, 0xb1, 0x6c, 0x0f, 0x3e,
  0x88, 0x9d, 0x3f, 0x3e, 0x43, 0xb4, 0x85, 0x3e, 0x0d, 0x43, 0xa5, 0xbd,
  0xb9, 0x61, 0x06, 0xbd, 0xea, 0x0a, 0xc0, 0x3d, 0xbd, 0xe4, 0x97, 0xbe,
  0xda, 0x91, 0x21, 0xbe, 0xc3, 0xcb, 0xa2, 0x3c, 0xd4, 0xe7, 0x2e, 0x3d,
  0x75, 0x67, 0x02, 0xbf, 0x5a, 0xbf, 0x3d, 0x3d, 0x30, 0x0b, 0x89, 0xbc,
  0xe1, 0x34, 0x54, 0xbe, 0x9f, 0x6c, 0x9a, 0x3e, 0x05, 0x46, 0x86, 0xbc,
  0x00, 0x00, 0xa2, 0x3c, 0x84, 0x97, 0x88, 0xbe, 0x26, 0xd3, 0x29, 0xbd,
  0x0f, 0x68, 0x04, 0xbc, 0x75, 0xef, 0x0c, 0xbe, 0xff, 0x15, 0x83, 0xbc,
  0xcb, 0xf1, 0x55, 0xbe, 0x3c, 0xb9, 0x19, 0x3e, 0x1c, 0xfb, 0x14, 0x3e,
  0x21, 0xb0, 0xba, 0x3d, 0x42, 0x84, 0x70, 0xbe, 0xbd, 0xcf, 0xcc, 0x3d,
  0x83, 0x62, 0xdb, 0x3d, 0x53, 0x53, 0x53, 0xbe, 0x01, 0xc7, 0x6d, 0x3c,
  0xa6, 0xcb, 0x29, 0x3d, 0x1c, 0x02, 0x0f, 0xbe, 0x26, 0xaf, 0xbe, 0x3d,
  0xdd, 0x1a, 0x41, 0xbe, 0x34, 0x49, 0xb2, 0x3d, 0x7b, 0x61, 0x7b, 0xbd,
  0xf9, 0xb5, 0xac, 0x3d, 0x61, 0x82, 0xd1, 0xbd, 0xa7, 0x45, 0xab, 0x3e,
  0xff, 0x4d, 0x37, 0xbe, 0x88, 0x46, 0xc2, 0x3d, 0x41, 0x75, 0x4d, 0xbd,
  0xd2, 0x1f, 0x44, 0xbe, 0x57, 0xa5, 0x25, 0x3e, 0x54, 0x51, 0x94, 0xbd,
  0xbd, 0x07, 0xb1, 0xbd, 0x94, 0xd1, 0xb4, 0x3e, 0x34, 0x6a, 0x22, 0xbe,
  0xb7, 0xf7, 0x01, 0x3e, 0x5d, 0xd7, 0x55, 0xbe, 0xbd, 0x92, 0x01, 0x3d,
  0x41, 0x5f, 0x36, 0xbe, 0xae, 0xde, 0xb8, 0x3c, 0x67, 0xf3, 0x8e, 0xbd,
  0x89, 0x99, 0x74, 0xbd, 0xe0, 0xe6, 0x81, 0xbe, 0x02, 0x63, 0x17, 0xbe,
  0xe9, 0xdb, 0x98, 0xbd, 0x55, 0x7d, 0x33, 0xbe, 0xdc, 0x73, 0x03, 0xbe,
  0x9d, 0x2b, 0xf1, 0xbd, 0xd5, 0xba, 0xbe, 0x3d, 0x62, 0xb5, 0x84, 0xbe,
  0xe4, 0xaf, 0xe8, 0xbc, 0x15, 0x13, 0x2c, 0xbe, 0xca, 0xf8, 0xff, 0xbc,
  0xea, 0x7d, 0xce, 0x3d, 0xc0, 0xc9, 0x0b, 0x3c, 0x5c, 0x0d, 0x2a, 0xbe,
  0xc7, 0xa7, 0x2d, 0xbd, 0x9f, 0xff, 0x23, 0xbd, 0x82, 0x31, 0x1b, 0x3e,
  0x3e, 0x02, 0x2b, 0x3e, 0x3a, 0x56, 0xe6, 0x3d, 0x9e, 0x85, 0x79, 0x3d,
  0x9e, 0xb0, 0x44, 0x3d, 0x2a, 0x2b, 0x8e, 0xbe, 0x16, 0x9e, 0xaf, 0x3e,
  0x96, 0x51, 0x07, 0x3e, 0x3d, 0x7e, 0x86, 0x3c, 0x41, 0xaf, 0x36, 0xbe,
  0xe0, 0x41, 0xad, 0x3b, 0xb0, 0x10, 0xfb, 0x3d, 0xcc, 0x9c, 0xd2, 0xbd,
  0x0b, 0xce, 0x98, 0xbd, 0x74, 0x3b, 0x1e, 0xbf, 0x87, 0x3c, 0x39, 0x3d,
  0x5f, 0x31, 0x0a, 0x3d, 0xd3, 0xf8, 0xcd, 0xbc, 0x01, 0x0c, 0xc8, 0xbd,
  0xd1, 0xfa, 0x80, 0x3e, 0x5c, 0xf5, 0xa9, 0xbd, 0xdf, 0x92, 0x78, 0x3e,
  0x73, 0x3e, 0x65, 0x3e, 0xde, 0x56, 0xb6, 0xbd, 0xb8, 0x9f, 0xdb, 0xbd,
  0x76, 0x67, 0x3d, 0xbe, 0x37, 0xa8, 0xc0, 0x3d, 0x30, 0xc8, 0xd3, 0xbd,
  0x22, 0xa1, 0x64, 0x3d, 0x76, 0x17, 0x11, 0xbe, 0x5d, 0xa9, 0xb7, 0x3e,
  0x80, 0xea, 0x92, 0x3e, 0x6d, 0xeb, 0x2f, 0xbc, 0xc3, 0xac, 0xbf, 0x3e,
  0xdf, 0x0a, 0x85, 0x3d, 0xfd, 0xce, 0x38, 0x3e, 0x1d, 0xc5, 0x7d, 0xbc,
  0xb9, 0x9c, 0x9e, 0xbe, 0xa9, 0x0d, 0x0e, 0xbf, 0x45, 0xda, 0x0c, 0x3e,
  0x17, 0x95, 0xb5, 0xbc, 0x65, 0xd4, 0x74, 0xbe, 0x78, 0x65, 0x51, 0x3e,
  0x9f, 0xff, 0xa3, 0x3d, 0x7a, 0xc5, 0xf7, 0x3d, 0xdd, 0x56, 0x2d, 0x3e,
  0x2d, 0xb4, 0xfa, 0xbc, 0x11, 0xd1, 0x4f, 0xbd, 0x90, 0xcb, 0x86, 0x3d,
  0x63, 0xd8, 0x0a, 0x3e, 0x80, 0xe9, 0x9e, 0x3c, 0xc8, 0x6e, 0xa7, 0xbd,
  0xbf, 0x1e, 0x0f, 0xbd, 0x0e, 0x49, 0xed, 0x3b, 0x1c, 0xa0, 0x70, 0xbc,
  0x23, 0x47, 0x1c, 0xbe, 0x3e, 0x1b, 0x5b, 0xbe, 0x05, 0xa8, 0x06, 0x3e,
  0xc9, 0x40, 0x13, 0xbe, 0x0a, 0xc7, 0xb0, 0xbd, 0xa6, 0xc8, 0xec, 0x3d,
  0xdb, 0x76, 0x16, 0x3e, 0xeb, 0x1f, 0x93, 0x3e, 0x6e, 0xcb, 0x95, 0xbd,
  0x0c, 0x5b, 0xab, 0xbe, 0x16, 0x8b, 0x83, 0x3e, 0x61, 0xaa, 0x1c, 0x3d,
  0x9b, 0xd7, 0xb6, 0x3d, 0xbc, 0x6d, 0x88, 0x3e, 0x6a, 0x3b, 0x41, 0x3c,
  0xb4, 0x1f, 0x10, 0xbf, 0x4f, 0xae, 0xa7, 0x3e, 0xa7, 0x8f, 0x8d, 0x3d,
  0x20, 0xcd, 0x20, 0xbe, 0xdb, 0x5b, 0x06, 0x3e, 0xd9, 0xe2, 0xff, 0x3d,
  0xf3, 0xa4, 0xf2, 0xbb, 0xba, 0x7f, 0x1e, 0x3e, 0x24, 0xc5, 0xb5, 0x3c,
  0x4e, 0x89, 0xe1, 0xbd, 0xa9, 0x4d, 0x93, 0xbe, 0xcb, 0x7e, 0x7f, 0xbe,
  0x09, 0xc2, 0xe5, 0x3c, 0x53, 0x64, 0x88, 0x3c, 0x8f, 0xeb, 0x6c, 0x3e,
  0xee, 0xff, 0xcb, 0xbc, 0xd3, 0x0b, 0x43, 0xbe, 0xa0, 0x4c, 0xe9, 0x3d,
  0x04, 0xf5, 0x0a, 0xbe, 0x69, 0xe4, 0xe0, 0x3d, 0x1c, 0xee, 0x7e, 0xbe,
  0x66, 0x9d, 0x9b, 0x3d, 0xb5, 0x75, 0x1d, 0x3e, 0x8f, 0x64, 0x76, 0xbc,
  0x47, 0x90, 0x07, 0xbf, 0xd1, 0x87, 0x54, 0x3e, 0xda, 0xb6, 0x67, 0x3d,
  0x58, 0x0f, 0x8a, 0xbc, 0xf0, 0xb9, 0x19, 0x3e, 0xf5, 0xe4, 0x17, 0xbd,
  0x32, 0x7a, 0x49, 0x3d, 0x4f, 0x51, 0xae, 0xbd, 0x96, 0x99, 0x38, 0xbe,
  0x4b, 0x2a, 0x98, 0x3c, 0x30, 0x7c, 0x0a, 0xbc, 0xa6, 0xf4, 0x0b, 0xbe,
  0x2a, 0x70, 0x44, 0xbd, 0xf9, 0xdc, 0xc9, 0x3c, 0x7f, 0xac, 0xe5, 0x3d,
  0x97, 0xbe, 0x12, 0xbe, 0x90, 0xfe, 0xb0, 0xbc, 0xef, 0x64, 0xd2, 0xbd,
  0x6d, 0x1a, 0xb6, 0xbd, 0x0a, 0x88, 0xe6, 0xbd, 0xf9, 0x29, 0xc6, 0x3d,
  0x16, 0xcc, 0x6c, 0xbd, 0x16, 0xb9, 0x97, 0xbd, 0x44, 0x7e, 0x07, 0xbe,
  0x9c, 0xf8, 0x62, 0x3c, 0x97, 0x72, 0x91, 0xbd, 0x37, 0x7a, 0x9b, 0x3d,
  0xc0, 0x00, 0x4d, 0xbe, 0x8c, 0xf1, 0x37, 0xba, 0xb2, 0x60, 0x00, 0xbe,
  0xd2, 0xe9, 0xff, 0xff, 0x04, 0x00, 0x00, 0x00, 0x20, 0x01, 0x00, 0x00,
  0xcc, 0xcd, 0xb8, 0x3d, 0xcc, 0xbb, 0x7b, 0x3e, 0x5e, 0xa4, 0xe2, 0x3d,
  0x07, 0x5e, 0x07, 0xbf, 0x73, 0x38, 0x14, 0xbe, 0x04, 0x19, 0x24, 0x3e,
  0x02, 0xd1, 0x8b, 0xbe, 0x69, 0x19, 0x9d, 0x3e, 0xc8, 0x04, 0xaf, 0x3c,
  0x98, 0x62, 0x94, 0xbe, 0x6d, 0x20, 0x70, 0xbc, 0xe2, 0xb1, 0xbe, 0x3e,
  0xe3, 0x5a, 0x0c, 0xbe, 0xcc, 0x99, 0x5f, 0xbd, 0x1d, 0xf4, 0xae, 0x3e,
  0x20, 0x3f, 0x10, 0xbe, 0xed, 0xeb, 0x73, 0xbe, 0xbd, 0xae, 0x99, 0x3e,
  0xd3, 0x12, 0x82, 0x3e, 0x96, 0x13, 0xc7, 0xbe, 0xcc, 0x90, 0x5a, 0x3e,
  0x80, 0x0e, 0xb3, 0x3e, 0x40, 0x5c, 0x8f, 0xbe, 0xdf, 0xad, 0x20, 0x3d,
  0x1b, 0x8d, 0x77, 0x3e, 0x3a, 0x7a, 0xa2, 0xbe, 0xa2, 0x7a, 0x97, 0xbd,
  0xac, 0x30, 0xb3, 0xbe, 0xd5, 0x7e, 0xb4, 0xbe, 0x3c, 0x52, 0x04, 0xbf,
  0x40, 0x03, 0x8e, 0xbe, 0x05, 0xc4, 0x34, 0xbf, 0x2c, 0x64, 0x7f, 0xbe,
  0xd3, 0x53, 0x0c, 0xbf, 0x27, 0x1c, 0xb0, 0x3e, 0x0c, 0x4c, 0x2b, 0x3f,
  0x0b, 0xd7, 0x5a, 0x3e, 0x2d, 0x70, 0x3d, 0x3e, 0xbb, 0xc1, 0x4d, 0xbe,
  0xca, 0x7f, 0x10, 0x3e, 0x62, 0x54, 0xaa, 0xbd, 0x47, 0x22, 0xb4, 0xbe,
  0xd1, 0xd5, 0xad, 0x3e, 0xf1, 0x01, 0x30, 0x3e, 0x20, 0x65, 0x89, 0xbe,
  0xf6, 0xbf, 0xab, 0xbe, 0x0a, 0x87, 0x97, 0xbe, 0xb8, 0x61, 0x12, 0xbe,
  0x8a, 0x74, 0x61, 0x3e, 0x10, 0xf2, 0x24, 0xbd, 0xca, 0x78, 0x4d, 0xbe,
  0xca, 0xfd, 0xbb, 0x3d, 0x31, 0xd1, 0x95, 0x3e, 0x23, 0xa6, 0x5b, 0x3e,
  0xfe, 0x7b, 0xfc, 0x3d, 0xa2, 0x25, 0x7b, 0xbd, 0xa8, 0x30, 0xa0, 0x3e,
  0x57, 0xb1, 0x79, 0x3e, 0xde, 0x44, 0x09, 0xbd, 0xe7, 0x17, 0x21, 0xbe,
  0x8b, 0x2e, 0x57, 0x3c, 0x7e, 0xe1, 0x18, 0x3c, 0xcb, 0x98, 0xa1, 0xbe,
  0x2d, 0x0d, 0xe6, 0x3d, 0x9b, 0x2c, 0x6d, 0x3e, 0x4d, 0xc7, 0x6a, 0xbe,
  0xe4, 0x5e, 0x3a, 0x3d, 0xce, 0x88, 0xfe, 0x3d, 0x21, 0x5f, 0x13, 0x3d,
  0xfe, 0x4e, 0x1d, 0xbb, 0x57, 0x8c, 0xe4, 0x3d, 0x9b, 0xee, 0xdb, 0xbd,
  0xfe, 0xea, 0xff, 0xff, 0x04, 0x00, 0x00, 0x00, 0x28, 0x00, 0x00, 0x00,
  0x77, 0x97, 0x0f, 0x3f, 0xb9, 0xdc, 0x01, 0x3f, 0x74, 0xa9, 0x0c, 0xbf,
  0xd1, 0x6a, 0x14, 0xbf, 0x8a, 0x48, 0xb1, 0x3e, 0xd6, 0x0e, 0xfb, 0xbd,
  0x57, 0xd9, 0x22, 0x3f, 0x23, 0x22, 0xdb, 0xbe, 0xe1, 0xf7, 0xc7, 0x3e,
  0xb4, 0x86, 0x0c, 0xbf, 0x32, 0xeb, 0xff, 0xff, 0x04, 0x00, 0x00, 0x00,
  0x00, 0x14, 0x00, 0x00, 0xfb, 0x8b, 0x1e, 0x3e, 0x14, 0x1d, 0x52, 0x3d,
  0x4a, 0xd9, 0x24, 0x3e, 0xa1, 0x29, 0xd6, 0x3d, 0x3a, 0x7d, 0xea, 0x3d,
  0x48, 0x81, 0x0a, 0x3d, 0x07, 0x35, 0x9c, 0xbd, 0x33, 0x02, 0x58, 0xbd,
  0x21, 0xd9, 0x12, 0xbd, 0x5d, 0xf5, 0x3d, 0xbd, 0x78, 0x58, 0x9d, 0x3d,
  0x0f, 0xad, 0x4e, 0xbe, 0x35, 0x65, 0xd2, 0xbd, 0x99, 0xc8, 0x2c, 0xbe,
  0xed, 0x41, 0x81, 0xbd, 0x93, 0x91, 0x5a, 0xbe, 0xf0, 0x06, 0x05, 0xbe,
  0x47, 0x3d, 0xd7, 0x3d, 0x3b, 0xcc, 0xd9, 0xbd, 0x7a, 0x2c, 0x26, 0x3e,
  0x88, 0x04, 0x41, 0xbd, 0x4b, 0x2e, 0xe6, 0x3d, 0x09, 0x8a, 0xab, 0x3c,
  0x19, 0xcd, 0xac, 0x3c, 0xe6, 0xcb, 0x78, 0x3d, 0xbe, 0x8f, 0xe4, 0x3d,
  0x35, 0xbf, 0xc2, 0xbd, 0x77, 0x81, 0x54, 0xbe, 0x41, 0xfe, 0xb7, 0x3d,
  0x86, 0xeb, 0x04, 0x3d, 0xdf, 0x57, 0xd7, 0x3d, 0xa3, 0x27, 0x6e, 0xbd,
  0x9a, 0x96, 0xdd, 0x3d, 0xd2, 0x2b, 0xe0, 0xbd, 0x7c, 0x2b, 0x32, 0xbe,
  0x25, 0x78, 0xb2, 0x3c, 0x28, 0xbe, 0x04, 0x3e, 0xcd, 0x4c, 0x6c, 0xbd,
  0x34, 0x83, 0x15, 0xbd, 0xe3, 0x54, 0x9e, 0xbd, 0x3c, 0x1f, 0x62, 0xbe,
  0x10, 0x72, 0x5b, 0x3d, 0xf0, 0x4e, 0x08, 0xbe, 0x63, 0x4e, 0x76, 0x3d,
  0x64, 0x17, 0x2a, 0xbe, 0x38, 0xd9, 0x00, 0xbe, 0xed, 0x4a, 0xce, 0x3c,
  0xc0, 0xb0, 0x14, 0x3e, 0x22, 0x96, 0xa2, 0xbd, 0x2c, 0xde, 0x1d, 0x3e,
  0x91, 0x54, 0xf2, 0xbd, 0x4f, 0xb6, 0x2a, 0xbe, 0x06, 0x68, 0x17, 0xbd,
  0x41, 0xff, 0xc4, 0x3d, 0x15, 0x8a, 0x81, 0xbd, 0xa2, 0x26, 0xf0, 0x3d,
  0x6c, 0xd2, 0xf6, 0x3d, 0x2e, 0x82, 0x1a, 0x3d, 0xd5, 0x72, 0x09, 0xbe,
  0xc2, 0x32, 0x53, 0x3d, 0x54, 0xc3, 0xea, 0xbc, 0x09, 0xfc, 0x04, 0x3d,
  0x25, 0xa9, 0x29, 0xbe, 0xe7, 0x1e, 0xe6, 0xbd, 0x4d, 0x94, 0x1c, 0xbe,
  0x88, 0x4a, 0x1f, 0xbe, 0xa2, 0x35, 0x09, 0x3e, 0x71, 0x0e, 0x22, 0xbe,
  0x23, 0x87, 0x33, 0xbc, 0x4b, 0x91, 0x90, 0xbd, 0x56, 0x26, 0x0d, 0xbe,
  0x9f, 0xd9, 0xaf, 0xbd, 0x49, 0x68, 0x4e, 0xbd, 0xef, 0xab, 0xc3, 0xbd,
  0x22, 0xe4, 0xef, 0x3d, 0xd8, 0x9a, 0xb4, 0x3c, 0x35, 0x3c, 0x1e, 0xbe,
  0x86, 0x68, 0xfe, 0xbd, 0x3e, 0xfb, 0x1b, 0xbe, 0xa3, 0xe4, 0x2d, 0x3e,
  0x2a, 0x21, 0xe4, 0x3d, 0xc9, 0x7f, 0x36, 0xbe, 0x09, 0x9c, 0x17, 0x3e,
  0x40, 0x8a, 0xfd, 0xb9, 0x53, 0x76, 0x29, 0xbe, 0x24, 0x65, 0xef, 0xbd,
  0x2d, 0x23, 0x37, 0xbe, 0x3b, 0xe0, 0x22, 0xbe, 0x2d, 0xc6, 0xb7, 0x3d,
  0x75, 0xb0, 0x41, 0xbe, 0x37, 0xab, 0x44, 0x3e, 0xd0, 0x9a, 0xb9, 0x3b,
  0x80, 0x5e, 0x8a, 0xbc, 0x7f, 0xe4, 0x96, 0xbc, 0xf7, 0x0b, 0x03, 0x3e,
  0x52, 0x33, 0x50, 0x3b, 0x03, 0x33, 0x38, 0x3e, 0xe5, 0x7d, 0xc0, 0xbd,
  0x8d, 0xe0, 0xc1, 0xbd, 0xdc, 0x71, 0x8b, 0xbd, 0x43, 0x35, 0x1c, 0xbe,
  0xed, 0x95, 0x3a, 0xbe, 0x58, 0x69, 0x2e, 0xbe, 0xd8, 0x66, 0x26, 0xbe,
  0xab, 0x61, 0x22, 0xbd, 0x85, 0x57, 0xc2, 0x3d, 0xb9, 0xae, 0x2f, 0x3e,
  0x1d, 0xff, 0x05, 0xbe, 0xd2, 0x2f, 0xcf, 0xbd, 0xfa, 0xcb, 0x1e, 0x3e,
  0x4e, 0xe2, 0x2b, 0xbd, 0xbb, 0xb6, 0x96, 0xbd, 0x47, 0x03, 0x0d, 0xbe,
  0xae, 0x4e, 0x49, 0xbd, 0x03, 0x0c, 0x81, 0x3c, 0x95, 0xf3, 0x36, 0xbe,
  0x68, 0x93, 0xf6, 0x3d, 0x15, 0xb8, 0x25, 0xbd, 0x11, 0xe6, 0x2c, 0x3e,
  0x0a, 0xcf, 0x8a, 0xbd, 0x87, 0x57, 0x25, 0xbd, 0xac, 0xd9, 0x0f, 0x3e,
  0xf6, 0xdd, 0x8a, 0xbd, 0xa7, 0x60, 0x43, 0x3e, 0x68, 0xcd, 0xf7, 0xbd,
  0xab, 0x0a, 0xd7, 0x3d, 0x84, 0x93, 0x83, 0xbd, 0x88, 0xec, 0xf7, 0xbd,
  0xf2, 0x57, 0x52, 0x3e, 0xdb, 0xa5, 0x90, 0x3e, 0xc1, 0xd1, 0x18, 0xbe,
  0xa7, 0x2b, 0xa8, 0xbe, 0x2e, 0xb0, 0x52, 0x3e, 0xb6, 0x42, 0xbf, 0x3c,
  0x8c, 0xed, 0x07, 0x3d, 0xee, 0xef, 0xd0, 0x3d, 0xb6, 0xca, 0x13, 0xbe,
  0xa5, 0x79, 0x1d, 0x3e, 0x66, 0xa3, 0xea, 0xbd, 0x80, 0x0d, 0xcb, 0x3e,
  0xc4, 0x89, 0x2b, 0xbd, 0xd7, 0x7f, 0xa4, 0x3e, 0x46, 0xe1, 0x26, 0x3e,
  0x4f, 0xb9, 0x34, 0x3e, 0xad, 0xb8, 0x03, 0x3e, 0x32, 0xbc, 0x52, 0x3d,
  0x8a, 0xe4, 0x47, 0x3c, 0x04, 0xad, 0x27, 0x3c, 0x0b, 0x09, 0x6e, 0xbd,
  0x1c, 0x85, 0xed, 0xbd, 0x47, 0x2d, 0x13, 0xbc, 0xd0, 0x48, 0x44, 0xbe,
  0xba, 0x49, 0x34, 0x3e, 0x22, 0x57, 0x79, 0x3d, 0x70, 0x4e, 0x9e, 0xbe,
  0x8f, 0x69, 0x8f, 0x3d, 0x12, 0xc8, 0x51, 0xbe, 0x99, 0x70, 0x0c, 0xbe,
  0x23, 0xb8, 0x84, 0xbd, 0x24, 0x1b, 0xc2, 0xbd, 0x54, 0x1b, 0x18, 0x3e,
  0xa7, 0x6d, 0x8a, 0x3d, 0xd6, 0x79, 0x31, 0xbe, 0x2a, 0x01, 0x74, 0x3e,
  0xa6, 0x1f, 0x98, 0xbe, 0x71, 0x02, 0x04, 0xbd, 0x35, 0x6f, 0x41, 0xbe,
  0x1c, 0x9b, 0x3e, 0x3d, 0x25, 0x19, 0x0e, 0x3e, 0x89, 0xed, 0x02, 0xbe,
  0xe5, 0xac, 0xb9, 0xbe, 0xa7, 0x42, 0x16, 0x3e, 0xab, 0xdb, 0x96, 0x3b,
  0xef, 0x27, 0x88, 0xbe, 0x4b, 0x4d, 0x95, 0x3e, 0x84, 0x16, 0xd6, 0xbd,
  0xaa, 0x5b, 0xe8, 0xbc, 0xde, 0xee, 0x5c, 0xbe, 0xaa, 0x72, 0x64, 0x3d,
  0xe5, 0x09, 0x53, 0x3e, 0x2b, 0x8a, 0x79, 0x3d, 0x1d, 0xf9, 0xb8, 0x3e,
  0x56, 0x08, 0xe4, 0x3e, 0x7f, 0x78, 0xa2, 0xbe, 0x56, 0x10, 0x2c, 0xbb,
  0xc8, 0xcf, 0x21, 0xbe, 0xc3, 0xa5, 0xad, 0x3d, 0x8d, 0x90, 0x2c, 0x3e,
  0x9a, 0x21, 0xd8, 0x3d, 0x9c, 0xe5, 0x70, 0x3d, 0xf5, 0xda, 0x12, 0xbc,
  0x8b, 0x1a, 0x60, 0x3e, 0xb1, 0x71, 0xf8, 0xbd, 0xc1, 0x34, 0x52, 0xbe,
  0xf4, 0x8f, 0x64, 0xbe, 0xbb, 0x90, 0xa9, 0xbd, 0xa3, 0x5f, 0x54, 0x3e,
  0x42, 0x80, 0xf2, 0x3d, 0xd2, 0xb0, 0x0b, 0x3e, 0xb9, 0x64, 0x14, 0xbd,
  0x86, 0x9a, 0x95, 0x3e, 0xb5, 0x43, 0x70, 0x3d, 0xb1, 0x12, 0x76, 0x3e,
  0x63, 0x33, 0xa5, 0xbd, 0x9c, 0xdd, 0x81, 0x3e, 0xb1, 0x53, 0x4a, 0x3e,
  0x87, 0x3d, 0x9a, 0xbe, 0x7c, 0xa9, 0x92, 0x3e, 0x79, 0x48, 0x32, 0x3e,
  0x7b, 0x97, 0x48, 0x3e, 0xb4, 0xa8, 0x04, 0xbe, 0x8e, 0xb9, 0x84, 0x3e,
  0x12, 0x62, 0x68, 0xbd, 0xaa, 0xe4, 0x62, 0xbe, 0x9f, 0xf7, 0x60, 0xbd,
  0x71, 0xb5, 0x8d, 0x3d, 0x79, 0xc2, 0xc5, 0xbd, 0xc0, 0xd2, 0x6c, 0xbe,
  0xc6, 0xe8, 0x90, 0x3e, 0x0b, 0x0a, 0xdb, 0x3d, 0x0c, 0x0f, 0x2d, 0x3e,
  0x00, 0x75, 0x6d, 0xb7, 0xfd, 0x77, 0x88, 0x3e, 0x0c, 0x66, 0x68, 0xbe,
  0xe2, 0x99, 0xd8, 0x3d, 0x74, 0x26, 0xc8, 0xbd, 0x87, 0x7a, 0x83, 0x3e,
  0xd5, 0xe3, 0x93, 0xbd, 0x39, 0xc5, 0x1a, 0xbe, 0xa6, 0x52, 0xf5, 0xbd,
  0x31, 0xac, 0x7b, 0x3e, 0x48, 0x93, 0x7a, 0xbd, 0x1a, 0xbc, 0x1b, 0xbe,
  0x9b, 0x4c, 0x0a, 0xbc, 0x1e, 0xeb, 0x9e, 0x3c, 0x87, 0x2c, 0x25, 0x3e,
  0xcc, 0xd2, 0xb7, 0x3e, 0xa2, 0xbd, 0x1b, 0xbc, 0xb9, 0xae, 0x75, 0xbc,
  0xe2, 0xb1, 0x48, 0xbe, 0x61, 0x13, 0xdf, 0xbd, 0x4e, 0xd5, 0x67, 0x3d,
  0x1c, 0xd3, 0x63, 0x3e, 0xd6, 0x59, 0x05, 0xbe, 0xcf, 0x4e, 0xb3, 0xbd,
  0xa2, 0x5e, 0x1c, 0x3e, 0x71, 0xa4, 0x61, 0xbd, 0x57, 0x0a, 0x18, 0xbe,
  0x91, 0x4f, 0xd4, 0x3d, 0xb7, 0x46, 0x0d, 0x3e, 0xac, 0x16, 0x01, 0xbe,
  0xca, 0x6b, 0x0e, 0xbe, 0xfc, 0xba, 0xcf, 0xbb, 0x9c, 0x44, 0xe4, 0xbd,
  0x72, 0x7c, 0x11, 0x3d, 0x31, 0x99, 0xc8, 0x3d, 0xc9, 0x63, 0x45, 0x3c,
  0x44, 0xb6, 0xc8, 0x3d, 0x28, 0x72, 0x6e, 0xbc, 0x8f, 0x1f, 0x06, 0xbd,
  0x19, 0xde, 0x2f, 0xbe, 0xc4, 0x69, 0xb3, 0xbd, 0x36, 0x7d, 0x3d, 0x3e,
  0x4a, 0xbd, 0x86, 0xbe, 0xb4, 0xa6, 0x8d, 0x3e, 0x39, 0xa0, 0x47, 0xbe,
  0xd0, 0xde, 0x79, 0x3e, 0x1b, 0x2b, 0xff, 0xbe, 0xa9, 0xb0, 0xdb, 0xbc,
  0xb6, 0x74, 0x5b, 0xbe, 0x6a, 0x17, 0x02, 0xbd, 0x7a, 0x6c, 0xec, 0x3d,
  0x5d, 0x39, 0x74, 0xbe, 0x6c, 0x82, 0x9e, 0x3d, 0x87, 0x9a, 0xe4, 0xbd,
  0xd4, 0xdd, 0x73, 0x3d, 0xb0, 0x11, 0x2b, 0xbd, 0xd9, 0x80, 0x68, 0xbd,
  0xf9, 0x3d, 0xc6, 0x3e, 0x0a, 0xe2, 0x76, 0x3e, 0xa4, 0x9e, 0xab, 0xbe,
  0x1e, 0x22, 0x48, 0xbe, 0x77, 0xd5, 0xb8, 0x3e, 0xdb, 0x47, 0x21, 0xbd,
  0xef, 0xcb, 0x33, 0x3d, 0xbe, 0x01, 0xd1, 0x3d, 0x6c, 0x06, 0x95, 0xbb,
  0x40, 0x3f, 0x83, 0xbc, 0xdb, 0x71, 0x11, 0xbe, 0x22, 0x17, 0xa3, 0x3d,
  0xac, 0x11, 0x92, 0x3e, 0xaa, 0x2b, 0xef, 0xbc, 0xc8, 0x60, 0x92, 0x3e,
  0xf0, 0x8f, 0x0b, 0xbe, 0x4b, 0x89, 0xc2, 0x3e, 0x68, 0x0c, 0xb5, 0x3d,
  0x90, 0x7c, 0x80, 0xbe, 0x62, 0x05, 0xc2, 0xbd, 0xed, 0xe9, 0x9d, 0xbc,
  0xbc, 0x54, 0x8c, 0xbd, 0xa1, 0x7a, 0x7c, 0x3e, 0xa0, 0x8c, 0x13, 0x3e,
  0x57, 0x68, 0x58, 0xbe, 0x66, 0x26, 0x44, 0x3e, 0xba, 0x1f, 0x63, 0xbe,
  0xf0, 0x70, 0x85, 0x3e, 0xbe, 0xbb, 0x89, 0x3e, 0xfc, 0x84, 0xa3, 0xbe,
  0xfb, 0xc5, 0x94, 0xbd, 0x6c, 0x51, 0x91, 0xbe, 0xfb, 0xbb, 0xda, 0xbe,
  0x82, 0xf1, 0x88, 0x3e, 0xb4, 0x38, 0x41, 0xbe, 0xf6, 0x93, 0x17, 0xbd,
  0x9e, 0xe1, 0xcd, 0xbb, 0x99, 0x19, 0x65, 0x3e, 0xd7, 0x1e, 0x22, 0x3d,
  0xba, 0x42, 0xe5, 0xba, 0x94, 0x72, 0x8a, 0xbd, 0x43, 0x7c, 0x5f, 0xbe,
  0xe6, 0xf8, 0x04, 0xbe, 0xf2, 0x1c, 0xe0, 0x3c, 0x75, 0x40, 0x45, 0x3e,
  0x49, 0x74, 0xb9, 0xbd, 0x14, 0xb0, 0x81, 0xbe, 0x15, 0x0a, 0x6b, 0xbd,
  0x68, 0xa6, 0x28, 0x3d, 0x0a, 0x94, 0xb6, 0x3e, 0x33, 0x2c, 0x46, 0xbe,
  0x4a, 0x4c, 0x14, 0xbe, 0x6b, 0x39, 0xd7, 0x3c, 0x9a, 0xb3, 0x07, 0x3d,
  0x40, 0x9e, 0xe0, 0x3d, 0x06, 0x8f, 0xf4, 0xbc, 0x5d, 0x2a, 0x8c, 0x3e,
  0x67, 0x3d, 0xda, 0xbd, 0xac, 0x67, 0x62, 0xbd, 0x02, 0xb9, 0xf2, 0xbd,
  0x8c, 0x2d, 0x97, 0x3d, 0xbb, 0xde, 0xdb, 0xbe, 0xb2, 0x6b, 0x8a, 0xbd,
  0xbc, 0x08, 0x90, 0x3e, 0x49, 0x5b, 0x1b, 0xbd, 0x39, 0xc0, 0x74, 0xbe,
  0xcc, 0x3a, 0x00, 0x3e, 0xf0, 0xbd, 0x04, 0x3d, 0x7a, 0x9c, 0x29, 0x3d,
  0xba, 0x20, 0x35, 0x3c, 0xde, 0x1b, 0x9b, 0xbe, 0x11, 0x64, 0x2e, 0xbd,
  0xb7, 0xdb, 0x5b, 0xbe, 0xe1, 0xee, 0xed, 0x3d, 0x39, 0x50, 0xf4, 0x3c,
  0xb1, 0xb0, 0x31, 0xbe, 0xe0, 0x69, 0x4a, 0xbe, 0x4a, 0x59, 0x79, 0x3e,
  0x7a, 0x7f, 0xde, 0x3b, 0x7b, 0x23, 0xc6, 0x3e, 0xa4, 0xb9, 0x1c, 0xbe,
  0xcb, 0xcc, 0x34, 0x3e, 0x36, 0x40, 0x50, 0x3e, 0x86, 0xa1, 0x4e, 0xbe,
  0xda, 0x63, 0xba, 0x3d, 0xe8, 0xa3, 0x35, 0x3e, 0x07, 0xb2, 0xf7, 0xbd,
  0x4e, 0xc8, 0xbc, 0x3d, 0x08, 0x3b, 0x4e, 0x3d, 0xd9, 0x5b, 0x16, 0xbe,
  0x79, 0x2a, 0xe2, 0x3c, 0xd2, 0x6e, 0xe8, 0xbd, 0xfa, 0x8e, 0xbb, 0x3c,
  0x2a, 0xb6, 0xdf, 0x3e, 0x3f, 0xac, 0xbc, 0x3e, 0x72, 0xd0, 0x52, 0xbd,
  0xc8, 0xdc, 0x4b, 0x3d, 0x76, 0x26, 0x9e, 0x3e, 0xe1, 0x96, 0x34, 0x3e,
  0x23, 0x40, 0x0b, 0x3e, 0xa4, 0x1f, 0x26, 0x3e, 0x00, 0x6f, 0x97, 0xba,
  0xa5, 0x75, 0xe2, 0x3c, 0xe5, 0x0c, 0xa6, 0xbd, 0xb8, 0x7b, 0x13, 0xbe,
  0x5c, 0x64, 0xa2, 0xbd, 0x6b, 0xea, 0xe1, 0xbd, 0xc4, 0x05, 0x45, 0xbd,
  0x1c, 0x56, 0x20, 0xbe, 0x8e, 0x86, 0x29, 0xbe, 0x86, 0x6e, 0x96, 0xbd,
  0x59, 0x40, 0x6c, 0xbe, 0xe3, 0xe1, 0x22, 0x3c, 0x7c, 0x5d, 0x79, 0xbc,
  0x70, 0x3a, 0x7f, 0x3c, 0xd2, 0xb7, 0xbb, 0xbd, 0xaf, 0x62, 0xfd, 0xbd,
  0x2c, 0x76, 0x07, 0xbe, 0x11, 0xd0, 0xde, 0xbd, 0x00, 0x62, 0xc8, 0xb9,
  0xd8, 0x9a, 0x72, 0xbe, 0xda, 0xe5, 0xb8, 0x3d, 0x24, 0xc5, 0x77, 0xbd,
  0x61, 0x0c, 0x8f, 0xbd, 0x77, 0x7d, 0x95, 0x3d, 0x74, 0x0e, 0x5b, 0xbe,
  0xfd, 0x07, 0x42, 0x3e, 0x08, 0x39, 0x42, 0xbe, 0x48, 0xf9, 0x24, 0xbe,
  0x74, 0x74, 0x7b, 0x3d, 0x23, 0x6b, 0x28, 0xbe, 0x34, 0x6c, 0x2b, 0x3d,
  0xbd, 0xa1, 0x3d, 0x3e, 0x38, 0xe7, 0x62, 0xbd, 0xab, 0xb1, 0x00, 0xbd,
  0x4c, 0xa3, 0x76, 0x3d, 0xa0, 0xb2, 0x12, 0xbe, 0x80, 0xdc, 0x88, 0xbd,
  0x49, 0xa7, 0xce, 0xbd, 0x16, 0xe8, 0xbd, 0xbd, 0x33, 0x07, 0x48, 0xbd,
  0x53, 0xa5, 0xc5, 0x3b, 0x86, 0xc4, 0x12, 0xbe, 0x63, 0x8a, 0xe7, 0xbd,
  0x48, 0x74, 0x23, 0x3e, 0xa0, 0x26, 0x29, 0xbc, 0x98, 0xe8, 0x92, 0x3c,
  0xd7, 0xa6, 0x12, 0x3e, 0xe9, 0x1f, 0xd6, 0xbd, 0xc8, 0x78, 0x77, 0xbd,
  0x48, 0x01, 0x10, 0x3d, 0x01, 0x7d, 0x24, 0x3e, 0xd9, 0x7c, 0x70, 0x3d,
  0x69, 0xb2, 0x39, 0xbe, 0xeb, 0x24, 0x12, 0x3e, 0x0a, 0xb1, 0x15, 0xbe,
  0xed, 0xb6, 0x71, 0xbe, 0xe6, 0xfb, 0x83, 0xbd, 0xa4, 0xcd, 0x31, 0xbe,
  0xc1, 0x21, 0x16, 0xbe, 0x31, 0x13, 0x1f, 0xbe, 0xf4, 0x97, 0x66, 0x3d,
  0x90, 0xb5, 0x36, 0xbc, 0x67, 0x88, 0x27, 0xbe, 0x4f, 0x51, 0x3b, 0x3e,
  0x80, 0xa9, 0xa4, 0xba, 0x78, 0x02, 0x5c, 0x3c, 0xb0, 0xf3, 0x66, 0xbd,
  0x96, 0x80, 0x30, 0x3e, 0x85, 0x9e, 0xb7, 0xbd, 0x7e, 0xf7, 0x87, 0xbd,
  0x75, 0xc6, 0x4c, 0x3c, 0x0f, 0xdb, 0x08, 0xbe, 0xb9, 0x14, 0x07, 0x3e,
  0xaf, 0x63, 0x4d, 0xbe, 0xf2, 0x03, 0x03, 0xbb, 0xd8, 0x6c, 0x02, 0xbd,
  0x82, 0xf1, 0xef, 0x3d, 0x0c, 0x5b, 0x2b, 0x3d, 0x4d, 0xf1, 0x1c, 0x3e,
  0xd1, 0x3c, 0x12, 0x3e, 0xa0, 0xa5, 0xe6, 0xbd, 0x60, 0x39, 0x6e, 0xbe,
  0x52, 0xc3, 0x98, 0x3d, 0x93, 0xc2, 0x6f, 0xbe, 0x05, 0x52, 0xf8, 0x3d,
  0x10, 0xbc, 0xb7, 0x3c, 0xca, 0xcd, 0xb2, 0xbd, 0xf8, 0xea, 0x98, 0x3d,
  0x71, 0xb8, 0xe1, 0x3c, 0xef, 0x7f, 0x27, 0x3e, 0x30, 0xb5, 0xaf, 0x3d,
  0xcc, 0x6e, 0x2f, 0x3e, 0xe9, 0x2b, 0x38, 0x3e, 0x28, 0xa4, 0x22, 0xbd,
  0x80, 0x7f, 0x6a, 0x3c, 0x46, 0x39, 0xc1, 0x3d, 0x02, 0x46, 0xbf, 0x3d,
  0xd7, 0xa1, 0x24, 0xbc, 0xc4, 0xe9, 0x37, 0x3d, 0x36, 0x00, 0x95, 0xbd,
  0x51, 0x21, 0xa5, 0xbd, 0xfc, 0x7d, 0x1b, 0xbe, 0xd0, 0xf9, 0x1f, 0xbd,
  0x54, 0x7c, 0xb5, 0xbc, 0x22, 0xd8, 0xa1, 0xbd, 0x00, 0x40, 0x46, 0x39,
  0xf6, 0x9c, 0x84, 0x3d, 0xfd, 0x2e, 0xb6, 0x3d, 0xdc, 0x4d, 0x52, 0xbe,
  0xec, 0xe7, 0x60, 0x3d, 0xf6, 0xd0, 0xc6, 0x3d, 0x24, 0xc6, 0x46, 0xbe,
  0x04, 0x5c, 0x8d, 0xbd, 0x4e, 0xf9, 0xe3, 0x3d, 0xc0, 0x0b, 0x70, 0xbb,
  0x7c, 0x56, 0x6e, 0x3d, 0xca, 0x36, 0x4e, 0x3d, 0x32, 0x9c, 0xc5, 0x3d,
  0x10, 0x07, 0x1a, 0xbb, 0x9c, 0x6e, 0x27, 0x3e, 0x81, 0x76, 0x5e, 0xbe,
  0x34, 0x9e, 0x6a, 0x3d, 0x5e, 0x55, 0x47, 0xbe, 0x06, 0xb8, 0xa5, 0x3d,
  0x2d, 0x74, 0x70, 0xbd, 0x48, 0x6f, 0x1f, 0xbe, 0x00, 0x7e, 0xb7, 0x39,
  0xa6, 0xd6, 0x09, 0xbe, 0x81, 0x72, 0x2c, 0x3e, 0x56, 0x70, 0x47, 0x3c,
  0x51, 0xac, 0xc0, 0xbd, 0x73, 0xcf, 0x3c, 0x3e, 0xec, 0x29, 0xed, 0x3d,
  0x50, 0xe1, 0xbb, 0x3e, 0x60, 0x5d, 0x88, 0x3e, 0x87, 0x7d, 0x1e, 0xbe,
  0x36, 0x05, 0x89, 0xbd, 0x9d, 0xd3, 0x74, 0x3e, 0x19, 0x83, 0x95, 0x3e,
  0x59, 0x0d, 0x3a, 0xbd, 0x29, 0x23, 0x90, 0x3e, 0xd5, 0xb1, 0x34, 0xbc,
  0x01, 0xc9, 0x4f, 0x3e, 0xf5, 0xea, 0x9c, 0xbe, 0xdc, 0x9d, 0x17, 0x3e,
  0xa4, 0x20, 0xe7, 0xbd, 0x08, 0xd9, 0xa5, 0x3e, 0x8f, 0xb1, 0x8d, 0xbd,
  0xe6, 0x89, 0xbf, 0xbd, 0x56, 0xc2, 0xbc, 0x3d, 0xbf, 0x1e, 0x6e, 0x3d,
  0x10, 0x35, 0x28, 0x3e, 0xaa, 0xc5, 0x0f, 0x3e, 0x11, 0xa2, 0x7b, 0x3e,
  0x9a, 0xb1, 0xc4, 0xbd, 0x50, 0xd4, 0x1d, 0xbe, 0xb9, 0x1e, 0xb8, 0xbe,
  0x25, 0xfc, 0x0b, 0x3f, 0x04, 0x22, 0x2b, 0x3e, 0xdf, 0xf6, 0xb7, 0xbe,
  0x01, 0xc3, 0x72, 0x3c, 0xe1, 0x8a, 0x05, 0x3e, 0x8b, 0xa1, 0x77, 0x3d,
  0x3a, 0x59, 0x7a, 0xbc, 0xb5, 0x57, 0xcb, 0xbe, 0xc8, 0x4f, 0x0e, 0x3e,
  0x9a, 0x0e, 0x8f, 0x3c, 0x0c, 0x84, 0x09, 0xbd, 0xa6, 0x2e, 0x85, 0x3d,
  0xc6, 0xfd, 0x1b, 0x3e, 0x9b, 0xf2, 0xe1, 0x3e, 0x5c, 0xaa, 0xb7, 0xbe,
  0xd1, 0x86, 0xfd, 0x3c, 0x8a, 0xdd, 0x8b, 0x3d, 0x96, 0x1d, 0xc1, 0xbc,
  0x7d, 0x7a, 0x06, 0xbd, 0x5b, 0x4c, 0x99, 0xbc, 0xbf, 0xab, 0xc7, 0xbe,
  0xdf, 0x1b, 0x08, 0x3e, 0xc1, 0x62, 0x8f, 0x3e, 0xa2, 0x23, 0xad, 0xbe,
  0x03, 0x91, 0x00, 0x3e, 0x45, 0x20, 0x32, 0xbe, 0x6f, 0x2f, 0xff, 0xbd,
  0x92, 0x54, 0xa0, 0x3e, 0xcf, 0x23, 0x09, 0x3e, 0x36, 0xbc, 0xfb, 0x3a,
  0x1d, 0xa1, 0x4a, 0x3e, 0xd2, 0x6e, 0x0d, 0xbf, 0xca, 0x09, 0xc0, 0x3d,
  0x7d, 0x82, 0x2a, 0xbe, 0xe0, 0x41, 0xca, 0x3c, 0x5c, 0x78, 0x4e, 0xbe,
  0xbd, 0x6b, 0x9a, 0xbd, 0x15, 0xe3, 0xfe, 0xbb, 0x43, 0x4d, 0xf5, 0x3d,
  0x5a, 0x30, 0x15, 0x3e, 0xcf, 0x3e, 0x5a, 0x3e, 0x8a, 0xca, 0xd6, 0xbd,
  0x93, 0x7b, 0xa9, 0x3d, 0xac, 0x26, 0x3e, 0x3d, 0xcb, 0x71, 0x90, 0x3e,
  0x72, 0x9c, 0x8c, 0x3e, 0x67, 0x57, 0x01, 0x3e, 0xd2, 0x67, 0xac, 0xbe,
  0xa2, 0x6b, 0x3f, 0x3e, 0xa3, 0x07, 0x22, 0xbe, 0xb3, 0x8a, 0xb5, 0x3e,
  0xe4, 0xaa, 0xda, 0xbd, 0xb0, 0x8b, 0x11, 0xbe, 0xf3, 0x08, 0x01, 0x3c,
  0x87, 0x7b, 0xee, 0xbe, 0xf1, 0xe1, 0x31, 0xbc, 0x47, 0x40, 0xaf, 0x3d,
  0x6c, 0x2f, 0x23, 0x3d, 0xaf, 0xbd, 0xe6, 0x3d, 0xb7, 0x25, 0xff, 0x3d,
  0xb0, 0xdc, 0x7c, 0x3d, 0xd3, 0xbe, 0xa5, 0xbe, 0xf7, 0x83, 0x91, 0xbd,
  0x34, 0x76, 0x98, 0x3e, 0xbb, 0x25, 0x16, 0x3d, 0x4b, 0x0e, 0xfd, 0xbd,
  0xdf, 0x75, 0x4b, 0xbd, 0xa2, 0x9a, 0x1e, 0xbe, 0x84, 0x75, 0xdd, 0x3e,
  0x9b, 0xde, 0x0a, 0x3e, 0xfc, 0xe6, 0x43, 0xbc, 0x94, 0x72, 0x93, 0x3d,
  0x44, 0x6f, 0x55, 0x3e, 0x02, 0x5c, 0xf2, 0x3d, 0xa7, 0xce, 0x04, 0xbe,
  0xfe, 0x66, 0x43, 0xbe, 0x47, 0x77, 0x5c, 0xbd, 0x10, 0x67, 0x93, 0xbe,
  0xd7, 0x45, 0xc5, 0xbd, 0xb9, 0x9e, 0x53, 0xbe, 0x71, 0x28, 0x35, 0xbd,
  0x66, 0x2b, 0xa9, 0x3c, 0x4c, 0xc1, 0xb0, 0xbd, 0x34, 0x7f, 0xd2, 0x3d,
  0xad, 0x68, 0x96, 0x3d, 0xe2, 0xd2, 0xbc, 0x3a, 0x46, 0xf8, 0xf8, 0xbd,
  0x60, 0x2f, 0x64, 0xbe, 0x30, 0x5c, 0xb9, 0x3d, 0x5c, 0x33, 0x0b, 0x3e,
  0xbc, 0x92, 0x8c, 0x3e, 0x66, 0x71, 0xf7, 0xbe, 0xb0, 0x6c, 0x4c, 0x3d,
  0xd9, 0xdd, 0x83, 0x3d, 0xbd, 0x97, 0x5b, 0xbd, 0x63, 0xa7, 0x4f, 0xbe,
  0x56, 0x77, 0x21, 0xbe, 0x86, 0x5c, 0x2f, 0x3e, 0xc3, 0x28, 0x0b, 0xbc,
  0xe7, 0xf2, 0x19, 0x3e, 0xc4, 0x2c, 0xff, 0x3d, 0xd2, 0xd2, 0x31, 0xbd,
  0xc7, 0x2f, 0x3c, 0xbe, 0x21, 0x39, 0x8e, 0xbd, 0xf8, 0x4e, 0xe6, 0xbd,
  0xab, 0x0e, 0xa3, 0x3d, 0x51, 0x6e, 0x2d, 0x3e, 0x12, 0x85, 0x36, 0xbd,
  0xe0, 0xa0, 0xc9, 0x3c, 0x73, 0x8a, 0xfe, 0x3d, 0x60, 0x16, 0x19, 0x3e,
  0x44, 0x6f, 0x88, 0x3d, 0xea, 0xfc, 0xa9, 0x3c, 0xa4, 0xc9, 0x25, 0x3d,
  0xbe, 0x40, 0x00, 0x3d, 0x9e, 0x34, 0x97, 0x3d, 0x17, 0x03, 0x97, 0xbd,
  0x3a, 0xcc, 0xf4, 0x3d, 0x4f, 0xb4, 0x13, 0x3d, 0x81, 0x7c, 0xd3, 0xbd,
  0x8c, 0x90, 0x2a, 0x3e, 0x9f, 0xcc, 0x20, 0xbe, 0xd5, 0xb5, 0xda, 0xbd,
  0xa5, 0xfc, 0x47, 0x3d, 0x93, 0x19, 0x8b, 0x3d, 0x7a, 0x15, 0xf5, 0xbd,
  0x13, 0xf1, 0x55, 0xbe, 0x73, 0x98, 0x34, 0x3d, 0x05, 0x91, 0x3c, 0xbe,
  0x20, 0x66, 0xd8, 0xbb, 0x36, 0x3d, 0x27, 0xbd, 0x0b, 0xba, 0xd3, 0xbd,
  0x90, 0x82, 0x1b, 0x3e, 0x12, 0xe3, 0x26, 0xbe, 0xcb, 0xac, 0xfc, 0xbd,
  0x8e, 0xc6, 0xe8, 0xbd, 0x42, 0x8b, 0x48, 0x3d, 0x4c, 0xa2, 0x27, 0xbe,
  0x07, 0xcc, 0xb1, 0xbd, 0x23, 0xfc, 0xf0, 0xbd, 0xe8, 0x42, 0x9e, 0xba,
  0xc7, 0xef, 0x30, 0x3d, 0xb7, 0x35, 0x57, 0xbe, 0xd3, 0x55, 0xbb, 0x3b,
  0x4b, 0x78, 0xf1, 0xbc, 0x50, 0x43, 0x8f, 0xbd, 0x86, 0x6a, 0x83, 0x3d,
  0x65, 0x76, 0x02, 0x3e, 0xae, 0x12, 0x0d, 0xbe, 0xc2, 0xa4, 0xc0, 0xbd,
  0x24, 0xc9, 0x05, 0xbe, 0xd5, 0x8a, 0x15, 0xbe, 0xa4, 0x42, 0x40, 0x3d,
  0x79, 0x3a, 0x01, 0xbe, 0x66, 0xad, 0x66, 0xbd, 0x4b, 0x43, 0x83, 0xbd,
  0x09, 0x7c, 0x0b, 0x3e, 0x49, 0x49, 0x34, 0xbe, 0xe1, 0x37, 0xf4, 0xbd,
  0x99, 0x93, 0x1f, 0x3d, 0xa8, 0xb3, 0x2b, 0xbe, 0x02, 0xa0, 0xe4, 0x3d,
  0xa8, 0xa7, 0x3d, 0x3a, 0x8d, 0x1d, 0x47, 0xbe, 0x5b, 0x22, 0xa0, 0xbc,
  0xc1, 0x9e, 0x20, 0x3c, 0x0e, 0x81, 0x6f, 0xbe, 0xf3, 0x03, 0x38, 0xbe,
  0x89, 0x9d, 0x8a, 0xbd, 0x85, 0x9b, 0xb6, 0x3d, 0x5c, 0xab, 0x21, 0xbe,
  0xfd, 0x27, 0xf8, 0x3d, 0x32, 0x6a, 0x86, 0x3d, 0x8b, 0xf6, 0x58, 0xbe,
  0xed, 0xe7, 0x9c, 0xbd, 0xec, 0xdb, 0x80, 0x3d, 0x45, 0x06, 0x23, 0xbd,
  0xa3, 0xf3, 0xfd, 0xbd, 0xfd, 0x58, 0x14, 0x3d, 0x41, 0x61, 0x26, 0x3e,
  0x8e, 0x79, 0xd7, 0x3d, 0x66, 0x32, 0x81, 0x3d, 0xa0, 0xc2, 0x38, 0xbd,
  0x5e, 0x8f, 0x8e, 0x3c, 0x9f, 0x61, 0xee, 0x3d, 0xa6, 0x44, 0xa8, 0xbd,
  0xa0, 0x2f, 0x2a, 0xbe, 0xfe, 0x1c, 0x26, 0x3e, 0xb9, 0xce, 0x21, 0x3e,
  0x99, 0x6e, 0xa3, 0xbd, 0xda, 0xd4, 0x36, 0xbe, 0xe5, 0x3a, 0x90, 0x3d,
  0x7b, 0xcc, 0xc4, 0x3c, 0xce, 0x14, 0x43, 0xbe, 0xb9, 0x99, 0xf5, 0xbd,
  0xd4, 0xb4, 0x3d, 0xbe, 0x2e, 0x03, 0x1c, 0xbe, 0xe4, 0x27, 0x5f, 0x3c,
  0x05, 0x79, 0x41, 0xbe, 0x65, 0xd2, 0x77, 0xbd, 0xbc, 0xd5, 0x01, 0x3d,
  0x1b, 0x04, 0x16, 0xbe, 0xe4, 0x0e, 0x24, 0xbe, 0x66, 0xd4, 0x1f, 0xbe,
  0xa4, 0x40, 0x18, 0xbd, 0x60, 0x1f, 0xdc, 0xbb, 0x3e, 0xb1, 0x10, 0xbe,
  0xb3, 0x60, 0xca, 0x3d, 0xb6, 0x32, 0xce, 0xbd, 0xc1, 0x05, 0x23, 0x3e,
  0x2e, 0x87, 0xdb, 0x3d, 0x5e, 0x51, 0xea, 0x3d, 0x76, 0xcc, 0x80, 0x3d,
  0x23, 0xcb, 0x52, 0xbc, 0x1f, 0x58, 0x00, 0x3d, 0x23, 0x99, 0x48, 0xbe,
  0x9f, 0x3e, 0x62, 0xbe, 0x50, 0x49, 0x2b, 0xbe, 0xb0, 0x10, 0x24, 0x3e,
  0xf2, 0xb2, 0x6f, 0xbe, 0xff, 0x90, 0x6f, 0x3c, 0x46, 0x41, 0xaa, 0xbd,
  0x17, 0x42, 0xd9, 0xbd, 0xa9, 0x56, 0x7b, 0xbd, 0x49, 0x2a, 0xef, 0x3d,
  0x80, 0x8e, 0x08, 0x3c, 0x00, 0x0d, 0x22, 0x3c, 0x8b, 0x13, 0xda, 0xbd,
  0xaf, 0x26, 0x16, 0xbd, 0x8a, 0x1d, 0xb4, 0x3d, 0x4a, 0x29, 0x6c, 0xbd,
  0xd4, 0x3f, 0x27, 0x3e, 0x95, 0xa0, 0xf1, 0xbd, 0x97, 0x1f, 0xe5, 0x3d,
  0x2c, 0x76, 0x1e, 0x3c, 0x06, 0x57, 0x03, 0x3c, 0x96, 0x46, 0x9a, 0x3d,
  0xba, 0xc6, 0xca, 0x3c, 0x86, 0xda, 0x08, 0xbe, 0xa9, 0x9b, 0x22, 0xbe,
  0x37, 0xee, 0x4d, 0xbe, 0x00, 0x20, 0x24, 0x38, 0x53, 0xad, 0x80, 0xbd,
  0x40, 0x4c, 0x9c, 0x3c, 0x55, 0xdd, 0x2d, 0xbe, 0x68, 0x24, 0xc5, 0xbc,
  0x44, 0x3f, 0x9b, 0x3d, 0x73, 0x9b, 0x16, 0x3e, 0x3b, 0x09, 0x47, 0x3e,
  0x2e, 0xbc, 0xfe, 0xbd, 0x92, 0xb5, 0x20, 0xbc, 0x4c, 0x98, 0x36, 0x3d,
  0xfc, 0xfc, 0x2d, 0xbe, 0x2e, 0xc5, 0xe7, 0x3a, 0x05, 0xa4, 0x2f, 0xbe,
  0xce, 0xd0, 0x8d, 0x3d, 0x50, 0x9f, 0xa3, 0x3c, 0xf1, 0x8d, 0x47, 0x3e,
  0xee, 0xd9, 0x52, 0xbe, 0xdb, 0x68, 0x37, 0x3e, 0x11, 0x77, 0x52, 0xbe,
  0xbb, 0xc4, 0x1c, 0x3e, 0xdd, 0xdf, 0x50, 0xbe, 0xab, 0x99, 0x66, 0xbe,
  0x84, 0x37, 0x1f, 0xbd, 0x77, 0x8f, 0x23, 0x3e, 0xf5, 0xb3, 0x3f, 0xbe,
  0x2c, 0x3c, 0xca, 0x3c, 0x9d, 0x24, 0x3c, 0xbe, 0x2a, 0x90, 0x28, 0xbe,
  0xd0, 0x3c, 0x26, 0xbe, 0xac, 0x1c, 0x66, 0x3d, 0x80, 0x3a, 0x29, 0xbb,
  0x44, 0x28, 0x46, 0x3d, 0xc9, 0x59, 0x1c, 0x3e, 0xcc, 0xf8, 0x02, 0x3d,
  0xef, 0x6d, 0xb2, 0xbd, 0x30, 0x91, 0x2f, 0xbe, 0x7e, 0x17, 0xf2, 0xbd,
  0x51, 0x1f, 0xa8, 0xbd, 0x1c, 0xa7, 0xfc, 0xbd, 0x1c, 0xee, 0x68, 0xba,
  0x39, 0xca, 0x03, 0xbe, 0x42, 0x0b, 0xf9, 0x3d, 0x46, 0xba, 0xbd, 0x3d,
  0xe4, 0x1a, 0xdf, 0xbd, 0xc7, 0x67, 0x56, 0xbe, 0x4b, 0x0e, 0x28, 0x3e,
  0xe1, 0xa9, 0x1f, 0xbe, 0xb4, 0x99, 0x42, 0x3d, 0xd3, 0x3d, 0x45, 0x3e,
  0x1d, 0xc7, 0x3d, 0xbe, 0x39, 0x29, 0xdf, 0x3d, 0x36, 0x38, 0xef, 0x3d,
  0x08, 0x37, 0xee, 0x3d, 0x50, 0x9c, 0xb2, 0x3d, 0x28, 0x0a, 0x10, 0xbd,
  0xc2, 0x34, 0xb6, 0xbd, 0x5e, 0x65, 0x0b, 0x3c, 0xb9, 0xb6, 0x08, 0xbe,
  0x2c, 0x68, 0x40, 0x3d, 0xb3, 0x66, 0x2f, 0xbe, 0x2f, 0x39, 0xfb, 0xbb,
  0x86, 0xc4, 0x12, 0xbe, 0xe0, 0x5a, 0x67, 0x3c, 0x0b, 0xb4, 0x3f, 0xbe,
  0x08, 0xb3, 0x15, 0xbe, 0x99, 0x8e, 0x36, 0x3e, 0x7d, 0x9e, 0x2e, 0xbe,
  0xd3, 0x00, 0x1a, 0x3e, 0x34, 0x46, 0xba, 0xbd, 0x59, 0xd8, 0xca, 0xbc,
  0xa0, 0x6b, 0x40, 0xbe, 0x44, 0x82, 0x56, 0xbe, 0xd6, 0x50, 0xfd, 0xbc,
  0x9e, 0x01, 0x77, 0xbd, 0xe0, 0x66, 0x15, 0xbe, 0x82, 0x87, 0x38, 0x3e,
  0xed, 0xb8, 0x25, 0x3e, 0xbe, 0xf8, 0xdf, 0x3d, 0x5e, 0x9a, 0x21, 0xbe,
  0x40, 0x78, 0x02, 0xbc, 0xd6, 0x7e, 0x86, 0xbd, 0x02, 0x71, 0xbe, 0x3d,
  0xb1, 0x58, 0xf5, 0x3d, 0xb1, 0x0b, 0x25, 0x3e, 0x06, 0x6d, 0x2a, 0x3e,
  0x75, 0x49, 0xeb, 0xbc, 0x2a, 0x9d, 0x19, 0xbe, 0xe3, 0x22, 0x11, 0x3d,
  0x99, 0x47, 0x9d, 0x3c, 0xf9, 0x6f, 0x2b, 0x3e, 0xe4, 0xdb, 0x25, 0x3d,
  0xaa, 0x95, 0x7f, 0xbd, 0xa5, 0xe8, 0x30, 0xbe, 0xb7, 0x65, 0x1d, 0x3e,
  0x3c, 0x56, 0x96, 0xbd, 0x72, 0x01, 0xfc, 0xbd, 0x10, 0xb2, 0x55, 0x3c,
  0x84, 0x7a, 0xd1, 0xbd, 0xf2, 0x92, 0x7b, 0xbd, 0xc8, 0x4e, 0x15, 0xbd,
  0x4b, 0xf1, 0xe9, 0xbd, 0x5d, 0xf4, 0xe4, 0xbd, 0x57, 0x70, 0x00, 0xbe,
  0x2c, 0xc8, 0xe9, 0x3d, 0x65, 0xac, 0x28, 0xbd, 0x63, 0x19, 0x1d, 0x3d,
  0xf4, 0x75, 0x2b, 0xbe, 0xc9, 0x40, 0x3f, 0xbe, 0x00, 0xf5, 0xce, 0xba,
  0x80, 0x71, 0x14, 0xbe, 0x76, 0xc2, 0x7a, 0x3b, 0xf8, 0xf8, 0x14, 0x3d,
  0xf9, 0xb3, 0x11, 0x3e, 0x84, 0xdd, 0x40, 0x3d, 0xcf, 0x3b, 0xfd, 0xbd,
  0x94, 0x93, 0x14, 0xbd, 0x84, 0x98, 0x1d, 0x3e, 0xaa, 0xf1, 0x1b, 0xbe,
  0xcc, 0x9c, 0x06, 0xbc, 0xb7, 0x6c, 0xaf, 0xbd, 0x48, 0x43, 0x19, 0x3e,
  0x90, 0xdf, 0xac, 0x3c, 0x20, 0x54, 0x52, 0x3a, 0xd8, 0xfc, 0x2d, 0x3e,
  0x76, 0xa8, 0x0a, 0x3e, 0xd1, 0x0a, 0x0d, 0xbe, 0x17, 0xe8, 0x4f, 0x3e,
  0x75, 0x09, 0x7b, 0xbd, 0x44, 0xef, 0x6f, 0x3e, 0xd6, 0xc5, 0x8a, 0xbe,
  0xf4, 0x6d, 0xcf, 0xbb, 0x52, 0xa9, 0xde, 0x3b, 0x0d, 0xca, 0x13, 0xbe,
  0xea, 0x58, 0x3b, 0x3d, 0x5c, 0x36, 0xef, 0x3c, 0x1f, 0x3e, 0x02, 0x3d,
  0xb1, 0x00, 0xf8, 0xbd, 0x1a, 0x53, 0x83, 0x3e, 0xdd, 0xed, 0x22, 0xbe,
  0xad, 0x8a, 0xa3, 0xbc, 0x6a, 0xe6, 0xad, 0x3e, 0x46, 0xb7, 0xcf, 0x3e,
  0x0c, 0x2e, 0xdb, 0xbe, 0x52, 0xd0, 0x65, 0xbe, 0xbc, 0x7d, 0xaa, 0xbc,
  0x21, 0xde, 0x6c, 0x3e, 0x55, 0x73, 0x38, 0x3c, 0x5f, 0xc5, 0x85, 0x3e,
  0x5d, 0xa6, 0x09, 0xbe, 0x67, 0x20, 0x2e, 0xbe, 0xe0, 0xca, 0x42, 0xbe,
  0xac, 0x00, 0x12, 0x3e, 0x6e, 0x2f, 0x4f, 0x3e, 0x59, 0x1e, 0x42, 0xbe,
  0x0f, 0xb0, 0xbb, 0xbc, 0x7d, 0x23, 0xa5, 0xbe, 0x50, 0x5d, 0x31, 0x3d,
  0xa7, 0x5d, 0x26, 0x3e, 0x4b, 0xa4, 0x88, 0xbe, 0x99, 0x5c, 0xcd, 0xbd,
  0x02, 0x88, 0x6e, 0x3d, 0xdc, 0xfc, 0x7a, 0xbc, 0xea, 0x53, 0x89, 0xbb,
  0xac, 0xee, 0x2c, 0x3b, 0xef, 0xb9, 0xc2, 0xbe, 0xeb, 0x8e, 0x07, 0x3f,
  0x83, 0xcd, 0xfa, 0xbd, 0x15, 0x02, 0x59, 0x3e, 0xfd, 0xbb, 0x1a, 0x3e,
  0x40, 0xfd, 0x7d, 0xbe, 0xb9, 0x8f, 0xc4, 0xbd, 0x73, 0xab, 0xcf, 0xbd,
  0x9f, 0x5f, 0x5a, 0xbe, 0xa9, 0x7f, 0xec, 0x3d, 0x5f, 0xca, 0xca, 0xbd,
  0x74, 0x2f, 0x1c, 0x3d, 0x00, 0x6d, 0xd3, 0xbb, 0x85, 0x9f, 0x76, 0x3d,
  0x1e, 0x25, 0xfe, 0x3d, 0x83, 0xa7, 0x66, 0x3d, 0x2b, 0x9b, 0x29, 0x3e,
  0xc3, 0xf8, 0x70, 0xbe, 0x7b, 0x32, 0x23, 0x3e, 0x75, 0x69, 0x6c, 0x3e,
  0x34, 0xcc, 0x61, 0xbb, 0x49, 0x4e, 0x4a, 0x3e, 0x34, 0x37, 0x96, 0xbe,
  0x96, 0x6c, 0x08, 0xbe, 0x51, 0xa5, 0x5b, 0xbe, 0x28, 0xe8, 0x8d, 0x3e,
  0x5e, 0x27, 0x4e, 0xbd, 0x82, 0xce, 0xa8, 0x3d, 0xb6, 0xf7, 0xf1, 0xbd,
  0xfb, 0xcc, 0xc5, 0xbd, 0x2c, 0xec, 0xc8, 0x3d, 0x2d, 0x25, 0xc2, 0xbd,
  0x50, 0x12, 0x9b, 0x3e, 0xdf, 0x19, 0x88, 0xbe, 0x6e, 0x2d, 0xe5, 0x3d,
  0x24, 0xb3, 0xd8, 0x3d, 0x5f, 0x86, 0x39, 0x3e, 0xe6, 0xbd, 0x90, 0xbe,
  0x00, 0xaf, 0x84, 0x3e, 0x54, 0xec, 0x4d, 0x3e, 0x12, 0xc0, 0xbb, 0x3d,
  0x43, 0x86, 0x4a, 0xbe, 0x39, 0x38, 0x81, 0x3e, 0x4a, 0x91, 0x83, 0x3e,
  0x0c, 0xd4, 0x7a, 0xbd, 0x78, 0x55, 0x2b, 0xbd, 0x8c, 0x58, 0x28, 0xbe,
  0xfb, 0xe9, 0x25, 0x3b, 0xff, 0xa3, 0x19, 0xbe, 0x31, 0xad, 0xf2, 0x3c,
  0x67, 0x4e, 0x09, 0x3d, 0x4e, 0x63, 0x72, 0x3d, 0x39, 0x86, 0x37, 0xbe,
  0x67, 0xb9, 0x4f, 0xbd, 0xa4, 0xd4, 0x23, 0x3e, 0xe8, 0x87, 0xee, 0x3d,
  0x8b, 0xb0, 0x16, 0xbe, 0x2f, 0x51, 0x4a, 0x3e, 0x1a, 0xa2, 0x92, 0x3d,
  0xed, 0x3a, 0xa3, 0x39, 0x5d, 0xca, 0xc7, 0x3d, 0x92, 0x13, 0x31, 0x3e,
  0x77, 0x40, 0x14, 0xbd, 0x44, 0x06, 0xed, 0x3d, 0x11, 0x57, 0x93, 0x3d,
  0x9b, 0x06, 0xa5, 0xbd, 0x88, 0xa4, 0xef, 0xbd, 0x41, 0x23, 0x54, 0xbe,
  0x11, 0x3d, 0x2a, 0xbe, 0xdc, 0x9c, 0x9d, 0x3e, 0xd8, 0x01, 0xe3, 0x3d,
  0x6e, 0x4c, 0x0a, 0xbe, 0xf9, 0x5c, 0x05, 0xbd, 0xdb, 0x37, 0xd6, 0x3d,
  0xb0, 0x5c, 0xda, 0x3d, 0x41, 0xba, 0x81, 0xbe, 0x9c, 0x2b, 0x48, 0xbe,
  0x42, 0xff, 0xe5, 0x3d, 0xe4, 0x1e, 0x7c, 0xbc, 0x45, 0x07, 0x2b, 0x3e,
  0xc6, 0xb4, 0x05, 0x3e, 0x12, 0x2b, 0x49, 0xbd, 0x73, 0x41, 0x36, 0x3e,
  0xba, 0x78, 0xf3, 0xbc, 0x06, 0x21, 0x1c, 0x3e, 0x3f, 0x53, 0x1f, 0x3e,
  0x5e, 0xe1, 0x3a, 0xbb, 0x6b, 0x01, 0x87, 0x3d, 0x9b, 0x3e, 0x05, 0xbe,
  0xb0, 0xe5, 0x23, 0x3e, 0xd2, 0xf8, 0x9f, 0xbd, 0x60, 0xe8, 0xd4, 0x3d,
  0x28, 0x57, 0x45, 0xbe, 0x95, 0xeb, 0x6e, 0x3e, 0x16, 0x33, 0x22, 0xbb,
  0xec, 0x20, 0x07, 0xbe, 0xf7, 0x42, 0x0a, 0x3c, 0x49, 0x35, 0xd7, 0x3d,
  0x44, 0x79, 0x50, 0xbe, 0x51, 0xc3, 0x84, 0x3d, 0x04, 0xb1, 0x6f, 0xbe,
  0x0c, 0x1a, 0xfa, 0xbd, 0x20, 0x2c, 0x9e, 0xbd, 0xb7, 0x3d, 0x57, 0xbe,
  0xe5, 0x2c, 0xff, 0x3c, 0x08, 0x14, 0x3e, 0xbe, 0xae, 0x0f, 0x04, 0x3e,
  0xbd, 0x26, 0x4e, 0x3d, 0x1b, 0xb2, 0x34, 0x3e, 0x60, 0xa1, 0xd2, 0x3d,
  0x03, 0x35, 0x9b, 0x3d, 0xfc, 0xad, 0x24, 0xbe, 0xd0, 0xf5, 0xcc, 0xbd,
  0x51, 0xbc, 0xb1, 0x3d, 0x1c, 0xb1, 0x46, 0x3e, 0xc9, 0x13, 0x02, 0x3e,
  0xe9, 0x73, 0x28, 0x3d, 0xed, 0x27, 0x0c, 0xbe, 0xa2, 0x13, 0x0e, 0xbe,
  0x72, 0x3d, 0xe8, 0xbd, 0xad, 0x59, 0x22, 0xbe, 0xa3, 0x0b, 0x1c, 0x3e,
  0xdc, 0x51, 0x84, 0x3d, 0x38, 0x9a, 0x3d, 0xbc, 0xc4, 0x2e, 0x04, 0x3b,
  0x0d, 0x3c, 0xe8, 0xbd, 0xeb, 0x25, 0x80, 0x3d, 0x73, 0xe7, 0xb9, 0x3d,
  0xaf, 0x05, 0xcb, 0x3d, 0x6b, 0x81, 0x06, 0x3e, 0x6e, 0x32, 0x46, 0xbe,
  0xa3, 0x6a, 0x5d, 0xbe, 0xa4, 0xe4, 0x5e, 0xbe, 0x5c, 0xfb, 0x0e, 0x3e,
  0x37, 0xad, 0xbf, 0x3c, 0x9b, 0x0a, 0xd4, 0xbd, 0x00, 0xcc, 0x60, 0xbb,
  0x54, 0xae, 0x40, 0xbe, 0xab, 0x05, 0x7c, 0x3d, 0x9c, 0xaa, 0x96, 0xbc,
  0x1e, 0x64, 0x09, 0x3e, 0x73, 0x6b, 0x70, 0xbe, 0xb9, 0x80, 0x04, 0x3e,
  0xde, 0x12, 0x26, 0xbe, 0x39, 0x0b, 0x1f, 0xbe, 0x8a, 0xaf, 0x20, 0x3d,
  0x00, 0xa1, 0x1c, 0xbd, 0x47, 0x37, 0xfc, 0x3d, 0xd1, 0xdb, 0x2b, 0x3c,
  0x84, 0xac, 0x6e, 0xbd, 0x4d, 0xdf, 0x03, 0x3e, 0x32, 0x1a, 0x79, 0x3d,
  0x8c, 0xfc, 0xb9, 0xbb, 0x24, 0x52, 0x48, 0xbe, 0x43, 0x50, 0x8c, 0xbc,
  0xd3, 0xfe, 0x32, 0x3e, 0x20, 0x54, 0x48, 0x3e, 0x03, 0x33, 0x41, 0xbd,
  0xc9, 0xae, 0x31, 0x3e, 0x86, 0xe5, 0x04, 0xbe, 0x0a, 0xfd, 0x2a, 0xbe,
  0x72, 0x85, 0x63, 0xbe, 0x50, 0x2a, 0xc8, 0xbc, 0x40, 0xbf, 0x47, 0xbe,
  0x91, 0x20, 0xdd, 0x3b, 0xad, 0x81, 0x0a, 0xbd, 0xd6, 0xba, 0x24, 0xbe,
  0xa7, 0x0f, 0x07, 0xbe, 0x18, 0xcf, 0x2b, 0xbe, 0x7f, 0xf2, 0x21, 0x3e,
  0x7b, 0x0a, 0xae, 0x3d, 0x83, 0xda, 0x53, 0xbe, 0x62, 0x38, 0x8c, 0xbd,
  0xc8, 0x6d, 0x23, 0x3e, 0x88, 0x18, 0x96, 0x3d, 0x80, 0x45, 0x6d, 0xbe,
  0xf5, 0x42, 0x88, 0xbd, 0xb3, 0x1e, 0x80, 0x3d, 0xc7, 0xbb, 0x03, 0x3e,
  0x27, 0xba, 0x87, 0xbd, 0xde, 0x9e, 0xde, 0x3c, 0x3a, 0xa9, 0x28, 0x3d,
  0xa7, 0xa8, 0x68, 0xbe, 0x8d, 0x02, 0xe3, 0xbd, 0x44, 0x3b, 0x07, 0xbe,
  0xbb, 0xed, 0x9e, 0x3d, 0x22, 0x53, 0xf5, 0xbc, 0x9d, 0x5d, 0xb9, 0x3d,
  0xd5, 0x66, 0xd2, 0x3c, 0xde, 0xe5, 0x26, 0x3e, 0x96, 0x6b, 0x34, 0xbe,
  0xa2, 0xbc, 0x2b, 0x3e, 0x61, 0x99, 0x9e, 0xbd, 0x5d, 0x70, 0x0b, 0xbe,
  0xc9, 0xe3, 0xa5, 0xbd, 0x74, 0xff, 0x4a, 0xbe, 0x86, 0x2f, 0x93, 0x3d,
  0x97, 0x41, 0x0f, 0x3e, 0x06, 0x84, 0x93, 0x3a, 0x3d, 0xa9, 0x03, 0x3e,
  0x0b, 0x05, 0x0f, 0x3e, 0xf8, 0x0d, 0x68, 0x3d, 0x70, 0xa2, 0x39, 0xbe,
  0x1d, 0xf7, 0x31, 0xbe, 0x98, 0x82, 0x21, 0xbe, 0x5c, 0x2b, 0xfd, 0xbd,
  0x5f, 0x1a, 0x64, 0xbe, 0xa3, 0x88, 0x17, 0xbc, 0x81, 0xe7, 0x46, 0xbe,
  0x8e, 0x1d, 0x7c, 0xbd, 0xab, 0x66, 0xdf, 0x3d, 0x76, 0xda, 0x1d, 0xbe,
  0xa5, 0x8c, 0x3c, 0xbe, 0x8e, 0xb8, 0xd3, 0x3d, 0xa9, 0x20, 0xdb, 0x3c,
  0x25, 0xc8, 0xf5, 0x3d, 0x48, 0x64, 0xa7, 0xbc, 0x34, 0xb1, 0x27, 0xbd,
  0xd4, 0x20, 0x50, 0xba, 0x68, 0x8f, 0x30, 0xbe, 0xe2, 0xf7, 0xf9, 0x3b,
  0x89, 0xc0, 0x23, 0x3e, 0xce, 0xd9, 0xbb, 0xbd, 0xec, 0xf6, 0x0d, 0x3d,
  0xa9, 0x45, 0x41, 0xbd, 0x6f, 0xab, 0xe9, 0x3d, 0x98, 0x2f, 0x98, 0xbc,
  0x54, 0xd6, 0x6a, 0x3d, 0xf1, 0x9d, 0xd8, 0x3d, 0x97, 0xcf, 0x20, 0xbe,
  0x40, 0xa7, 0xf5, 0x3c, 0x53, 0xf5, 0x16, 0xbd, 0x43, 0xed, 0xb2, 0x3d,
  0xd0, 0xb1, 0xb6, 0xbd, 0xf7, 0x8d, 0x69, 0x3d, 0x6e, 0x0c, 0xff, 0xbd,
  0xd3, 0xb2, 0x94, 0x3d, 0x20, 0x96, 0xbc, 0xbb, 0x9f, 0xa9, 0xad, 0xbd,
  0x25, 0x57, 0x52, 0xbe, 0xed, 0x3c, 0x59, 0x3d, 0x56, 0x3b, 0x99, 0xbd,
  0xe4, 0xc3, 0xe0, 0x3d, 0xee, 0x68, 0x85, 0xbd, 0x49, 0xc8, 0x73, 0xbe,
  0x28, 0xe4, 0x3f, 0xbd, 0x17, 0xc6, 0x1f, 0xbe, 0x72, 0x00, 0x11, 0xbe,
  0x66, 0xf0, 0x22, 0x3d, 0x1a, 0x16, 0xaa, 0xbc, 0xa6, 0x9b, 0x10, 0xbd,
  0x51, 0xb6, 0x16, 0x3e, 0x70, 0xbc, 0x3a, 0xbc, 0xd1, 0xfa, 0xc5, 0xbd,
  0x69, 0xcd, 0x33, 0x3e, 0x63, 0x61, 0x48, 0xbe, 0xb5, 0x01, 0x42, 0xbc,
  0x35, 0xfe, 0x4f, 0x3d, 0x28, 0xfb, 0x96, 0x3d, 0x2e, 0xc8, 0x17, 0xbd,
  0xfa, 0xd7, 0xc3, 0x3d, 0x41, 0xd1, 0x10, 0xbd, 0xaa, 0xb6, 0x2a, 0x3e,
  0xfe, 0x71, 0xc2, 0xbd, 0x6d, 0xbc, 0xed, 0xbd, 0x9f, 0xc7, 0x4b, 0xbe,
  0x8a, 0x78, 0x9e, 0x3d, 0xfa, 0x14, 0x32, 0xbe, 0x5d, 0xc6, 0x45, 0xbe,
  0xba, 0x4a, 0x3e, 0xbe, 0xb8, 0xcb, 0x0b, 0x3e, 0x60, 0xa3, 0xa2, 0xbd,
  0x7f, 0x79, 0xde, 0xbd, 0xb2, 0x7a, 0x61, 0xbd, 0x48, 0xd5, 0x18, 0xbe,
  0xf5, 0x9c, 0x02, 0xbe, 0x73, 0xb5, 0x84, 0x3d, 0x8e, 0x7f, 0xf1, 0x3d,
  0x37, 0xb3, 0x4b, 0x3d, 0xa4, 0x3a, 0x4b, 0xbe, 0x1a, 0x27, 0x33, 0xbe,
  0xa7, 0xce, 0x14, 0xbe, 0x0d, 0x96, 0x24, 0x3e, 0xf6, 0x6b, 0x05, 0xbe,
  0xf3, 0x8e, 0x46, 0xbe, 0x87, 0xea, 0x2f, 0x3e, 0x48, 0x9a, 0x31, 0xbe,
  0xcf, 0x28, 0x64, 0xbd, 0xa7, 0x33, 0x81, 0xbd, 0x93, 0x83, 0x1f, 0xbe,
  0xf7, 0x21, 0x36, 0xbe, 0x72, 0x7f, 0x18, 0x3d, 0x35, 0x9a, 0x35, 0xbe,
  0xe9, 0x66, 0x85, 0x3d, 0x9b, 0xbb, 0x56, 0x3c, 0x97, 0x1b, 0x5f, 0x3d,
  0xc3, 0x73, 0x27, 0xbe, 0xa6, 0x6e, 0x3d, 0xbc, 0xb6, 0x45, 0x56, 0xbd,
  0xf4, 0x4d, 0x56, 0x3d, 0x6b, 0xfa, 0x6e, 0xbe, 0x60, 0xa5, 0xed, 0x3b,
  0xef, 0x00, 0xc3, 0xbd, 0x5c, 0x5f, 0x00, 0x3e, 0xae, 0x39, 0x5b, 0xbe,
  0x4a, 0xd2, 0x17, 0xbe, 0xf3, 0x08, 0x27, 0xbe, 0x17, 0x93, 0x50, 0xbe,
  0xb1, 0xec, 0xe3, 0xbd, 0x90, 0x77, 0x1c, 0x3e, 0x62, 0x89, 0x2c, 0xbe,
  0x43, 0x41, 0x23, 0x3e, 0x95, 0xcb, 0xc4, 0x3d, 0xcf, 0x6f, 0xbb, 0x3d,
  0xeb, 0x32, 0x4b, 0xbe, 0xbe, 0xb2, 0xe1, 0x3d, 0x42, 0x74, 0x64, 0xbc,
  0x48, 0xad, 0xb2, 0x3c, 0x14, 0x75, 0x11, 0x3d, 0x1d, 0x18, 0x17, 0x3e,
  0x41, 0x39, 0x12, 0xbe, 0x74, 0xa4, 0x69, 0x3d, 0xcc, 0x48, 0x28, 0xbe,
  0x89, 0x39, 0xdb, 0x3d, 0x61, 0xb5, 0x84, 0x3c, 0xae, 0xe3, 0xe8, 0xbd,
  0x7a, 0x68, 0x11, 0xbe, 0xc2, 0xed, 0xea, 0xbd, 0xf0, 0x82, 0x6f, 0xbc,
  0x63, 0x1a, 0xa4, 0xbd, 0x71, 0x44, 0xba, 0x3d, 0x07, 0xb2, 0x20, 0x3e,
  0x78, 0x08, 0x9c, 0xbc, 0x81, 0x0a, 0x24, 0x3e, 0x68, 0x40, 0x31, 0xbd,
  0xb9, 0x3b, 0x36, 0x3e, 0x32, 0xc3, 0x31, 0xbe, 0x13, 0xd0, 0x95, 0x3d,
  0x3e, 0xff, 0xff, 0xff, 0x04, 0x00, 0x00, 0x00, 0x08, 0x00, 0x00, 0x00,
  0xff, 0xff, 0xff, 0xff, 0x80, 0x00, 0x00, 0x00, 0x52, 0xff, 0xff, 0xff,
  0x04, 0x00, 0x00, 0x00, 0x20, 0x00, 0x00, 0x00, 0xc0, 0xe5, 0xf9, 0x3c,
  0xca, 0xef, 0xab, 0xbe, 0xb6, 0xec, 0x2b, 0x3d, 0x12, 0xab, 0xbf, 0x3e,
  0xd6, 0x1a, 0x65, 0xbd, 0xc2, 0x3b, 0x83, 0x3e, 0x9a, 0x75, 0xaf, 0xbe,
  0x77, 0x82, 0x34, 0xbf, 0x7e, 0xff, 0xff, 0xff, 0x04, 0x00, 0x00, 0x00,
  0x40, 0x00, 0x00, 0x00, 0xbe, 0x86, 0x2b, 0xbc, 0x37, 0xd2, 0xda, 0xbd,
  0xc4, 0xa8, 0x51, 0xbe, 0x99, 0x81, 0x3c, 0xbe, 0xee, 0x89, 0x7a, 0xbd,
  0x8d, 0x89, 0x2b, 0xbe, 0xb8, 0xd0, 0x31, 0xbe, 0x06, 0xb5, 0x04, 0xbd,
  0x72, 0xca, 0x50, 0x3d, 0xca, 0xc4, 0x2d, 0xbe, 0xd5, 0x26, 0x4c, 0x3e,
  0x17, 0x85, 0xa2, 0x3c, 0xef, 0xd9, 0xdd, 0xbd, 0xf5, 0x05, 0x89, 0xbd,
  0x8c, 0x14, 0xa8, 0xbd, 0x7c, 0x4b, 0x0e, 0xbe, 0xca, 0xff, 0xff, 0xff,
  0x04, 0x00, 0x00, 0x00, 0x28, 0x00, 0x00, 0x00, 0xf3, 0x1b, 0x02, 0xbd,
  0x4a, 0xab, 0x26, 0xbe, 0x13, 0x3d, 0x28, 0x3e, 0x3a, 0xe4, 0x01, 0xbd,
  0x44, 0x4a, 0x21, 0xbe, 0x21, 0x0a, 0x02, 0xbd, 0x2c, 0xca, 0x96, 0xbc,
  0xbd, 0x98, 0x35, 0x3e, 0x49, 0x1d, 0x02, 0xbd, 0x09, 0x18, 0x02, 0xbd,
  0x00, 0x00, 0x06, 0x00, 0x08, 0x00, 0x04, 0x00, 0x06, 0x00, 0x00, 0x00,
  0x04, 0x00, 0x00, 0x00, 0x04, 0x00, 0x00, 0x00, 0xa6, 0x62, 0x18, 0xbe,
  0x7c, 0xf6, 0xff, 0xff, 0x80, 0xf6, 0xff, 0xff, 0x0f, 0x00, 0x00, 0x00,
  0x4d, 0x4c, 0x49, 0x52, 0x20, 0x43, 0x6f, 0x6e, 0x76, 0x65, 0x72, 0x74,
  0x65, 0x64, 0x2e, 0x00, 0x01, 0x00, 0x00, 0x00, 0x14, 0x00, 0x00, 0x00,
  0x00, 0x00, 0x0e, 0x00, 0x18, 0x00, 0x14, 0x00, 0x10, 0x00, 0x0c, 0x00,
  0x08, 0x00, 0x04, 0x00, 0x0e, 0x00, 0x00, 0x00, 0x14, 0x00, 0x00, 0x00,
  0x1c, 0x00, 0x00, 0x00, 0x3c, 0x02, 0x00, 0x00, 0x40, 0x02, 0x00, 0x00,
  0x44, 0x02, 0x00, 0x00, 0x04, 0x00, 0x00, 0x00, 0x6d, 0x61, 0x69, 0x6e,
  0x00, 0x00, 0x00, 0x00, 0x08, 0x00, 0x00, 0x00, 0xd4, 0x01, 0x00, 0x00,
  0x74, 0x01, 0x00, 0x00, 0x18, 0x01, 0x00, 0x00, 0xd8, 0x00, 0x00, 0x00,
  0xb0, 0x00, 0x00, 0x00, 0x60, 0x00, 0x00, 0x00, 0x28, 0x00, 0x00, 0x00,
  0x04, 0x00, 0x00, 0x00, 0x6a, 0xff, 0xff, 0xff, 0x0c, 0x00, 0x00, 0x00,
  0x10, 0x00, 0x00, 0x00, 0x04, 0x00, 0x00, 0x00, 0x01, 0x00, 0x00, 0x00,
  0x11, 0x00, 0x00, 0x00, 0x01, 0x00, 0x00, 0x00, 0x10, 0x00, 0x00, 0x00,
  0xd6, 0xfe, 0xff, 0xff, 0x14, 0x00, 0x00, 0x00, 0x00, 0x00, 0x00, 0x08,
  0x10, 0x00, 0x00, 0x00, 0x14, 0x00, 0x00, 0x00, 0x03, 0x00, 0x00, 0x00,
  0x30, 0xf7, 0xff, 0xff, 0x01, 0x00, 0x00, 0x00, 0x10, 0x00, 0x00, 0x00,
  0x03, 0x00, 0x00, 0x00, 0x0f, 0x00, 0x00, 0x00, 0x07, 0x00, 0x00, 0x00,
  0x01, 0x00, 0x00, 0x00, 0x0a, 0xff, 0xff, 0xff, 0x1c, 0x00, 0x00, 0x00,
  0x00, 0x00, 0x00, 0x08, 0x1c, 0x00, 0x00, 0x00, 0x20, 0x00, 0x00, 0x00,
  0x03, 0x00, 0x00, 0x00, 0x00, 0x00, 0x06, 0x00, 0x08, 0x00, 0x07, 0x00,
  0x06, 0x00, 0x00, 0x00, 0x00, 0x00, 0x00, 0x01, 0x01, 0x00, 0x00, 0x00,
  0x0f, 0x00, 0x00, 0x00, 0x03, 0x00, 0x00, 0x00, 0x0e, 0x00, 0x00, 0x00,
  0x06, 0x00, 0x00, 0x00, 0x02, 0x00, 0x00, 0x00, 0x00, 0x00, 0x0a, 0x00,
  0x10, 0x00, 0x0c, 0x00, 0x08, 0x00, 0x04, 0x00, 0x0a, 0x00, 0x00, 0x00,
  0x0c, 0x00, 0x00, 0x00, 0x10, 0x00, 0x00, 0x00, 0x02, 0x00, 0x00, 0x00,
  0x01, 0x00, 0x00, 0x00, 0x0e, 0x00, 0x00, 0x00, 0x02, 0x00, 0x00, 0x00,
  0x0d, 0x00, 0x00, 0x00, 0x05, 0x00, 0x00, 0x00, 0x7a, 0xff, 0xff, 0xff,
  0x14, 0x00, 0x00, 0x00, 0x00, 0x00, 0x00, 0x05, 0x20, 0x00, 0x00, 0x00,
  0x24, 0x00, 0x00, 0x00, 0x01, 0x00, 0x00, 0x00, 0x6a, 0xff, 0xff, 0xff,
  0x02, 0x00, 0x00, 0x00, 0x02, 0x00, 0x00, 0x00, 0x02, 0x00, 0x00, 0x00,
  0x02, 0x00, 0x00, 0x00, 0x01, 0x00, 0x00, 0x00, 0x0d, 0x00, 0x00, 0x00,
  0x01, 0x00, 0x00, 0x00, 0x0c, 0x00, 0x00, 0x00, 0x5a, 0xff, 0xff, 0xff,
  0x1c, 0x00, 0x00, 0x00, 0x00, 0x00, 0x00, 0x01, 0x24, 0x00, 0x00, 0x00,
  0x28, 0x00, 0x00, 0x00, 0x0c, 0x00, 0x10, 0x00, 0x00, 0x00, 0x0c, 0x00,
  0x08, 0x00, 0x07, 0x00, 0x0c, 0x00, 0x00, 0x00, 0x00, 0x00, 0x00, 0x01,
  0x01, 0x00, 0x00, 0x00, 0x01, 0x00, 0x00, 0x00, 0x01, 0x00, 0x00, 0x00,
  0x0c, 0x00, 0x00, 0x00, 0x03, 0x00, 0x00, 0x00, 0x0b, 0x00, 0x00, 0x00,
  0x09, 0x00, 0x00, 0x00, 0x03, 0x00, 0x00, 0x00, 0x00, 0x00, 0x0e, 0x00,
  0x1a, 0x00, 0x14, 0x00, 0x10, 0x00, 0x0c, 0x00, 0x0b, 0x00, 0x04, 0x00,
  0x0e, 0x00, 0x00, 0x00, 0x24, 0x00, 0x00, 0x00, 0x00, 0x00, 0x00, 0x05,
  0x30, 0x00, 0x00, 0x00, 0x34, 0x00, 0x00, 0x00, 0x01, 0x00, 0x00, 0x00,
  0x00, 0x00, 0x0e, 0x00, 0x14, 0x00, 0x00, 0x00, 0x10, 0x00, 0x0c, 0x00,
  0x08, 0x00, 0x04, 0x00, 0x0e, 0x00, 0x00, 0x00, 0x02, 0x00, 0x00, 0x00,
  0x02, 0x00, 0x00, 0x00, 0x02, 0x00, 0x00, 0x00, 0x02, 0x00, 0x00, 0x00,
  0x01, 0x00, 0x00, 0x00, 0x0b, 0x00, 0x00, 0x00, 0x01, 0x00, 0x00, 0x00,
  0x0a, 0x00, 0x00, 0x00, 0x00, 0x00, 0x0e, 0x00, 0x14, 0x00, 0x00, 0x00,
  0x10, 0x00, 0x0c, 0x00, 0x0b, 0x00, 0x04, 0x00, 0x0e, 0x00, 0x00, 0x00,
  0x1c, 0x00, 0x00, 0x00, 0x00, 0x00, 0x00, 0x01, 0x28, 0x00, 0x00, 0x00,
  0x2c, 0x00, 0x00, 0x00, 0x0c, 0x00, 0x14, 0x00, 0x13, 0x00, 0x0c, 0x00,
  0x08, 0x00, 0x07, 0x00, 0x0c, 0x00, 0x00, 0x00, 0x00, 0x00, 0x00, 0x01,
  0x01, 0x00, 0x00, 0x00, 0x01, 0x00, 0x00, 0x00, 0x00, 0x00, 0x00, 0x01,
  0x01, 0x00, 0x00, 0x00, 0x0a, 0x00, 0x00, 0x00, 0x03, 0x00, 0x00, 0x00,
  0x00, 0x00, 0x00, 0x00, 0x08, 0x00, 0x00, 0x00, 0x04, 0x00, 0x00, 0x00,
  0x01, 0x00, 0x00, 0x00, 0x11, 0x00, 0x00, 0x00, 0x01, 0x00, 0x00, 0x00,
  0x00, 0x00, 0x00, 0x00, 0x12, 0x00, 0x00, 0x00, 0xc8, 0x06, 0x00, 0x00,
  0x7c, 0x06, 0x00, 0x00, 0x34, 0x06, 0x00, 0x00, 0xfc, 0x05, 0x00, 0x00,
  0xc4, 0x05, 0x00, 0x00, 0x78, 0x05, 0x00, 0x00, 0x1c, 0x05, 0x00, 0x00,
  0xd0, 0x04, 0x00, 0x00, 0x7c, 0x04, 0x00, 0x00, 0x28, 0x04, 0x00, 0x00,
  0x70, 0x03, 0x00, 0x00, 0xfc, 0x02, 0x00, 0x00, 0x44, 0x02, 0x00, 0x00,
  0xd0, 0x01, 0x00, 0x00, 0x70, 0x01, 0x00, 0x00, 0xd8, 0x00, 0x00, 0x00,
  0x5c, 0x00, 0x00, 0x00, 0x04, 0x00, 0x00, 0x00, 0x94, 0xf9, 0xff, 0xff,
  0x14, 0x00, 0x00, 0x00, 0x1c, 0x00, 0x00, 0x00, 0x1c, 0x00, 0x00, 0x00,
  0x12, 0x00, 0x00, 0x00, 0x34, 0x00, 0x00, 0x00, 0x02, 0x00, 0x00, 0x00,
  0xff, 0xff, 0xff, 0xff, 0x01, 0x00, 0x00, 0x00, 0x78, 0xf9, 0xff, 0xff,
  0x19, 0x00, 0x00, 0x00, 0x53, 0x74, 0x61, 0x74, 0x65, 0x66, 0x75, 0x6c,
  0x50, 0x61, 0x72, 0x74, 0x69, 0x74, 0x69, 0x6f, 0x6e, 0x65, 0x64, 0x43,
  0x61, 0x6c, 0x6c, 0x3a, 0x30, 0x00, 0x00, 0x00, 0x02, 0x00, 0x00, 0x00,
  0x01, 0x00, 0x00, 0x00, 0x01, 0x00, 0x00, 0x00, 0xe8, 0xf9, 0xff, 0xff,
  0x14, 0x00, 0x00, 0x00, 0x1c, 0x00, 0x00, 0x00, 0x1c, 0x00, 0x00, 0x00,
  0x11, 0x00, 0x00, 0x00, 0x58, 0x00, 0x00, 0x00, 0x02, 0x00, 0x00, 0x00,
  0xff, 0xff, 0xff, 0xff, 0x01, 0x00, 0x00, 0x00, 0xcc, 0xf9, 0xff, 0xff,
  0x3c, 0x00, 0x00, 0x00, 0x73, 0x65, 0x71, 0x75, 0x65, 0x6e, 0x74, 0x69,
  0x61, 0x6c, 0x5f, 0x34, 0x32, 0x2f, 0x64, 0x65, 0x6e, 0x73, 0x65, 0x5f,
  0x38, 0x35, 0x2f, 0x4d, 0x61, 0x74, 0x4d, 0x75, 0x6c, 0x3b, 0x73, 0x65,
  0x71, 0x75, 0x65, 0x6e, 0x74, 0x69, 0x61, 0x6c, 0x5f, 0x34, 0x32, 0x2f,
  0x64, 0x65, 0x6e, 0x73, 0x65, 0x5f, 0x38, 0x35, 0x2f, 0x42, 0x69, 0x61,
  0x73, 0x41, 0x64, 0x64, 0x00, 0x00, 0x00, 0x00, 0x02, 0x00, 0x00, 0x00,
  0x01, 0x00, 0x00, 0x00, 0x01, 0x00, 0x00, 0x00, 0x60, 0xfa, 0xff, 0xff,
  0x14, 0x00, 0x00, 0x00, 0x1c, 0x00, 0x00, 0x00, 0x1c, 0x00, 0x00, 0x00,
  0x10, 0x00, 0x00, 0x00, 0x74, 0x00, 0x00, 0x00, 0x02, 0x00, 0x00, 0x00,
  0xff, 0xff, 0xff, 0xff, 0x0a, 0x00, 0x00, 0x00, 0x44, 0xfa, 0xff, 0xff,
  0x58, 0x00, 0x00, 0x00, 0x73, 0x65, 0x71, 0x75, 0x65, 0x6e, 0x74, 0x69,
  0x61, 0x6c, 0x5f, 0x34, 0x32, 0x2f, 0x64, 0x65, 0x6e, 0x73, 0x65, 0x5f,
  0x38, 0x34, 0x2f, 0x4d, 0x61, 0x74, 0x4d, 0x75, 0x6c, 0x3b, 0x73, 0x65,
  0x71, 0x75, 0x65, 0x6e, 0x74, 0x69, 0x61, 0x6c, 0x5f, 0x34, 0x32, 0x2f,
  0x64, 0x65, 0x6e, 0x73, 0x65, 0x5f, 0x38, 0x34, 0x2f, 0x52, 0x65, 0x6c,
  0x75, 0x3b, 0x73, 0x65, 0x71, 0x75, 0x65, 0x6e, 0x74, 0x69, 0x61, 0x6c,
  0x5f, 0x34, 0x32, 0x2f, 0x64, 0x65, 0x6e, 0x73, 0x65, 0x5f, 0x38, 0x34,
  0x2f, 0x42, 0x69, 0x61, 0x73, 0x41, 0x64, 0x64, 0x00, 0x00, 0x00, 0x00,
  0x02, 0x00, 0x00, 0x00, 0x01, 0x00, 0x00, 0x00, 0x0a, 0x00, 0x00, 0x00,
  0xf4, 0xfa, 0xff, 0xff, 0x14, 0x00, 0x00, 0x00, 0x1c, 0x00, 0x00, 0x00,
  0x1c, 0x00, 0x00, 0x00, 0x0f, 0x00, 0x00, 0x00, 0x3c, 0x00, 0x00, 0x00,
  0x02, 0x00, 0x00, 0x00, 0xff, 0xff, 0xff, 0xff, 0x80, 0x00, 0x00, 0x00,
  0xd8, 0xfa, 0xff, 0xff, 0x20, 0x00, 0x00, 0x00, 0x73, 0x65, 0x71, 0x75,
  0x65, 0x6e, 0x74, 0x69, 0x61, 0x6c, 0x5f, 0x34, 0x32, 0x2f, 0x66, 0x6c,
  0x61, 0x74, 0x74, 0x65, 0x6e, 0x5f, 0x34, 0x32, 0x2f, 0x52, 0x65, 0x73,
  0x68, 0x61, 0x70, 0x65, 0x00, 0x00, 0x00, 0x00, 0x02, 0x00, 0x00, 0x00,
  0x01, 0x00, 0x00, 0x00, 0x80, 0x00, 0x00, 0x00, 0x50, 0xfb, 0xff, 0xff,
  0x14, 0x00, 0x00, 0x00, 0x24, 0x00, 0x00, 0x00, 0x24, 0x00, 0x00, 0x00,
  0x0e, 0x00, 0x00, 0x00, 0x48, 0x00, 0x00, 0x00, 0x04, 0x00, 0x00, 0x00,
  0xff, 0xff, 0xff, 0xff, 0x01, 0x00, 0x00, 0x00, 0x08, 0x00, 0x00, 0x00,
  0x10, 0x00, 0x00, 0x00, 0x3c, 0xfb, 0xff, 0xff, 0x26, 0x00, 0x00, 0x00,
  0x73, 0x65, 0x71, 0x75, 0x65, 0x6e, 0x74, 0x69, 0x61, 0x6c, 0x5f, 0x34,
  0x32, 0x2f, 0x6d, 0x61, 0x78, 0x5f, 0x70, 0x6f, 0x6f, 0x6c, 0x69, 0x6e,
  0x67, 0x32, 0x64, 0x5f, 0x38, 0x35, 0x2f, 0x4d, 0x61, 0x78, 0x50, 0x6f,
  0x6f, 0x6c, 0x00, 0x00, 0x04, 0x00, 0x00, 0x00, 0x01, 0x00, 0x00, 0x00,
  0x01, 0x00, 0x00, 0x00, 0x08, 0x00, 0x00, 0x00, 0x10, 0x00, 0x00, 0x00,
  0xc0, 0xfb, 0xff, 0xff, 0x14, 0x00, 0x00, 0x00, 0x24, 0x00, 0x00, 0x00,
  0x24, 0x00, 0x00, 0x00, 0x0d, 0x00, 0x00, 0x00, 0x8c, 0x00, 0x00, 0x00,
  0x04, 0x00, 0x00, 0x00, 0xff, 0xff, 0xff, 0xff, 0x02, 0x00, 0x00, 0x00,
  0x0f, 0x00, 0x00, 0x00, 0x10, 0x00, 0x00, 0x00, 0xac, 0xfb, 0xff, 0xff,
  0x6a, 0x00, 0x00, 0x00, 0x73, 0x65, 0x71, 0x75, 0x65, 0x6e, 0x74, 0x69,
  0x61, 0x6c, 0x5f, 0x34, 0x32, 0x2f, 0x63, 0x6f, 0x6e, 0x76, 0x32, 0x64,
  0x5f, 0x38, 0x35, 0x2f, 0x52, 0x65, 0x6c, 0x75, 0x3b, 0x73, 0x65, 0x71,
  0x75, 0x65, 0x6e, 0x74, 0x69, 0x61, 0x6c, 0x5f, 0x34, 0x32, 0x2f, 0x63,
  0x6f, 0x6e, 0x76, 0x32, 0x64, 0x5f, 0x38, 0x35, 0x2f, 0x42, 0x69, 0x61,
  0x73, 0x41, 0x64, 0x64, 0x3b, 0x73, 0x65, 0x71, 0x75, 0x65, 0x6e, 0x74,
  0x69, 0x61, 0x6c, 0x5f, 0x34, 0x32, 0x2f, 0x63, 0x6f, 0x6e, 0x76, 0x32,
  0x64, 0x5f, 0x38, 0x35, 0x2f, 0x43, 0x6f, 0x6e, 0x76, 0x32, 0x44, 0x3b,
  0x63, 0x6f, 0x6e, 0x76, 0x32, 0x64, 0x5f, 0x38, 0x35, 0x2f, 0x62, 0x69,
  0x61, 0x73, 0x00, 0x00, 0x04, 0x00, 0x00, 0x00, 0x01, 0x00, 0x00, 0x00,
  0x02, 0x00, 0x00, 0x00, 0x0f, 0x00, 0x00, 0x00, 0x10, 0x00, 0x00, 0x00,
  0x74, 0xfc, 0xff, 0xff, 0x14, 0x00, 0x00, 0x00, 0x24, 0x00, 0x00, 0x00,
  0x24, 0x00, 0x00, 0x00, 0x0c, 0x00, 0x00, 0x00, 0x48, 0x00, 0x00, 0x00,
  0x04, 0x00, 0x00, 0x00, 0xff, 0xff, 0xff, 0xff, 0x02, 0x00, 0x00, 0x00,
  0x0f, 0x00, 0x00, 0x00, 0x08, 0x00, 0x00, 0x00, 0x60, 0xfc, 0xff, 0xff,
  0x26, 0x00, 0x00, 0x00, 0x73, 0x65, 0x71, 0x75, 0x65, 0x6e, 0x74, 0x69,
  0x61, 0x6c, 0x5f, 0x34, 0x32, 0x2f, 0x6d, 0x61, 0x78, 0x5f, 0x70, 0x6f,
  0x6f, 0x6c, 0x69, 0x6e, 0x67, 0x32, 0x64, 0x5f, 0x38, 0x34, 0x2f, 0x4d,
  0x61, 0x78, 0x50, 0x6f, 0x6f, 0x6c, 0x00, 0x00, 0x04, 0x00, 0x00, 0x00,
  0x01, 0x00, 0x00, 0x00, 0x02, 0x00, 0x00, 0x00, 0x0f, 0x00, 0x00, 0x00,
  0x08, 0x00, 0x00, 0x00, 0xe4, 0xfc, 0xff, 0xff, 0x14, 0x00, 0x00, 0x00,
  0x24, 0x00, 0x00, 0x00, 0x24, 0x00, 0x00, 0x00, 0x0b, 0x00, 0x00, 0x00,
  0x8c, 0x00, 0x00, 0x00, 0x04, 0x00, 0x00, 0x00, 0xff, 0xff, 0xff, 0xff,
  0x03, 0x00, 0x00, 0x00, 0x1e, 0x00, 0x00, 0x00, 0x08, 0x00, 0x00, 0x00,
  0xd0, 0xfc, 0xff, 0xff, 0x6a, 0x00, 0x00, 0x00, 0x73, 0x65, 0x71, 0x75,
  0x65, 0x6e, 0x74, 0x69, 0x61, 0x6c, 0x5f, 0x34, 0x32, 0x2f, 0x63, 0x6f,
  0x6e, 0x76, 0x32, 0x64, 0x5f, 0x38, 0x34, 0x2f, 0x52, 0x65, 0x6c, 0x75,
  0x3b, 0x73, 0x65, 0x71, 0x75, 0x65, 0x6e, 0x74, 0x69, 0x61, 0x6c, 0x5f,
  0x34, 0x32, 0x2f, 0x63, 0x6f, 0x6e, 0x76, 0x32, 0x64, 0x5f, 0x38, 0x34,
  0x2f, 0x42, 0x69, 0x61, 0x73, 0x41, 0x64, 0x64, 0x3b, 0x73, 0x65, 0x71,
  0x75, 0x65, 0x6e, 0x74, 0x69, 0x61, 0x6c, 0x5f, 0x34, 0x32, 0x2f, 0x63,
  0x6f, 0x6e, 0x76, 0x32, 0x64, 0x5f, 0x38, 0x34, 0x2f, 0x43, 0x6f, 0x6e,
  0x76, 0x32, 0x44, 0x3b, 0x63, 0x6f, 0x6e, 0x76, 0x32, 0x64, 0x5f, 0x38,
  0x34, 0x2f, 0x62, 0x69, 0x61, 0x73, 0x00, 0x00, 0x04, 0x00, 0x00, 0x00,
  0x01, 0x00, 0x00, 0x00, 0x03, 0x00, 0x00, 0x00, 0x1e, 0x00, 0x00, 0x00,
  0x08, 0x00, 0x00, 0x00, 0xda, 0xfd, 0xff, 0xff, 0x10, 0x00, 0x00, 0x00,
  0x10, 0x00, 0x00, 0x00, 0x0a, 0x00, 0x00, 0x00, 0x2c, 0x00, 0x00, 0x00,
  0x6c, 0xfd, 0xff, 0xff, 0x1e, 0x00, 0x00, 0x00, 0x73, 0x65, 0x71, 0x75,
  0x65, 0x6e, 0x74, 0x69, 0x61, 0x6c, 0x5f, 0x34, 0x32, 0x2f, 0x63, 0x6f,
  0x6e, 0x76, 0x32, 0x64, 0x5f, 0x38, 0x35, 0x2f, 0x43, 0x6f, 0x6e, 0x76,
  0x32, 0x44, 0x00, 0x00, 0x04, 0x00, 0x00, 0x00, 0x10, 0x00, 0x00, 0x00,
  0x03, 0x00, 0x00, 0x00, 0x03, 0x00, 0x00, 0x00, 0x08, 0x00, 0x00, 0x00,
  0x2a, 0xfe, 0xff, 0xff, 0x10, 0x00, 0x00, 0x00, 0x10, 0x00, 0x00, 0x00,
  0x09, 0x00, 0x00, 0x00, 0x2c, 0x00, 0x00, 0x00, 0xbc, 0xfd, 0xff, 0xff,
  0x1e, 0x00, 0x00, 0x00, 0x73, 0x65, 0x71, 0x75, 0x65, 0x6e, 0x74, 0x69,
  0x61, 0x6c, 0x5f, 0x34, 0x32, 0x2f, 0x63, 0x6f, 0x6e, 0x76, 0x32, 0x64,
  0x5f, 0x38, 0x34, 0x2f, 0x43, 0x6f, 0x6e, 0x76, 0x32, 0x44, 0x00, 0x00,
  0x04, 0x00, 0x00, 0x00, 0x08, 0x00, 0x00, 0x00, 0x03, 0x00, 0x00, 0x00,
  0x03, 0x00, 0x00, 0x00, 0x01, 0x00, 0x00, 0x00, 0x7a, 0xfe, 0xff, 0xff,
  0x10, 0x00, 0x00, 0x00, 0x10, 0x00, 0x00, 0x00, 0x08, 0x00, 0x00, 0x00,
  0x2c, 0x00, 0x00, 0x00, 0x0c, 0xfe, 0xff, 0xff, 0x1d, 0x00, 0x00, 0x00,
  0x73, 0x65, 0x71, 0x75, 0x65, 0x6e, 0x74, 0x69, 0x61, 0x6c, 0x5f, 0x34,
  0x32, 0x2f, 0x64, 0x65, 0x6e, 0x73, 0x65, 0x5f, 0x38, 0x35, 0x2f, 0x4d,
  0x61, 0x74, 0x4d, 0x75, 0x6c, 0x00, 0x00, 0x00, 0x02, 0x00, 0x00, 0x00,
  0x01, 0x00, 0x00, 0x00, 0x0a, 0x00, 0x00, 0x00, 0xc2, 0xfe, 0xff, 0xff,
  0x10, 0x00, 0x00, 0x00, 0x10, 0x00, 0x00, 0x00, 0x07, 0x00, 0x00, 0x00,
  0x2c, 0x00, 0x00, 0x00, 0x54, 0xfe, 0xff, 0xff, 0x1d, 0x00, 0x00, 0x00,
  0x73, 0x65, 0x71, 0x75, 0x65, 0x6e, 0x74, 0x69, 0x61, 0x6c, 0x5f, 0x34,
  0x32, 0x2f, 0x64, 0x65, 0x6e, 0x73, 0x65, 0x5f, 0x38, 0x34, 0x2f, 0x4d,
  0x61, 0x74, 0x4d, 0x75, 0x6c, 0x00, 0x00, 0x00, 0x02, 0x00, 0x00, 0x00,
  0x0a, 0x00, 0x00, 0x00, 0x80, 0x00, 0x00, 0x00, 0x00, 0x00, 0x0e, 0x00,
  0x18, 0x00, 0x14, 0x00, 0x13, 0x00, 0x0c, 0x00, 0x08, 0x00, 0x04, 0x00,
  0x0e, 0x00, 0x00, 0x00, 0x14, 0x00, 0x00, 0x00, 0x14, 0x00, 0x00, 0x00,
  0x06, 0x00, 0x00, 0x00, 0x00, 0x00, 0x00, 0x02, 0x2c, 0x00, 0x00, 0x00,
  0xb0, 0xfe, 0xff, 0xff, 0x1e, 0x00, 0x00, 0x00, 0x73, 0x65, 0x71, 0x75,
  0x65, 0x6e, 0x74, 0x69, 0x61, 0x6c, 0x5f, 0x34, 0x32, 0x2f, 0x66, 0x6c,
  0x61, 0x74, 0x74, 0x65, 0x6e, 0x5f, 0x34, 0x32, 0x2f, 0x43, 0x6f, 0x6e,
  0x73, 0x74, 0x00, 0x00, 0x01, 0x00, 0x00, 0x00, 0x02, 0x00, 0x00, 0x00,
  0x62, 0xff, 0xff, 0xff, 0x10, 0x00, 0x00, 0x00, 0x10, 0x00, 0x00, 0x00,
  0x05, 0x00, 0x00, 0x00, 0x1c, 0x00, 0x00, 0x00, 0xf4, 0xfe, 0xff, 0xff,
  0x0e, 0x00, 0x00, 0x00, 0x63, 0x6f, 0x6e, 0x76, 0x32, 0x64, 0x5f, 0x38,
  0x34, 0x2f, 0x62, 0x69, 0x61, 0x73, 0x00, 0x00, 0x01, 0x00, 0x00, 0x00,
  0x08, 0x00, 0x00, 0x00, 0x96, 0xff, 0xff, 0xff, 0x10, 0x00, 0x00, 0x00,
  0x10, 0x00, 0x00, 0x00, 0x04, 0x00, 0x00, 0x00, 0x1c, 0x00, 0x00, 0x00,
  0x28, 0xff, 0xff, 0xff, 0x0e, 0x00, 0x00, 0x00, 0x63, 0x6f, 0x6e, 0x76,
  0x32, 0x64, 0x5f, 0x38, 0x35, 0x2f, 0x62, 0x69, 0x61, 0x73, 0x00, 0x00,
  0x01, 0x00, 0x00, 0x00, 0x10, 0x00, 0x00, 0x00, 0xca, 0xff, 0xff, 0xff,
  0x10, 0x00, 0x00, 0x00, 0x10, 0x00, 0x00, 0x00, 0x03, 0x00, 0x00, 0x00,
  0x1c, 0x00, 0x00, 0x00, 0x5c, 0xff, 0xff, 0xff, 0x0d, 0x00, 0x00, 0x00,
  0x64, 0x65, 0x6e, 0x73, 0x65, 0x5f, 0x38, 0x34, 0x2f, 0x62, 0x69, 0x61,
  0x73, 0x00, 0x00, 0x00, 0x01, 0x00, 0x00, 0x00, 0x0a, 0x00, 0x00, 0x00,
  0x00, 0x00, 0x0e, 0x00, 0x14, 0x00, 0x10, 0x00, 0x00, 0x00, 0x0c, 0x00,
  0x08, 0x00, 0x04, 0x00, 0x0e, 0x00, 0x00, 0x00, 0x10, 0x00, 0x00, 0x00,
  0x10, 0x00, 0x00, 0x00, 0x02, 0x00, 0x00, 0x00, 0x1c, 0x00, 0x00, 0x00,
  0xa0, 0xff, 0xff, 0xff, 0x0d, 0x00, 0x00, 0x00, 0x64, 0x65, 0x6e, 0x73,
  0x65, 0x5f, 0x38, 0x35, 0x2f, 0x62, 0x69, 0x61, 0x73, 0x00, 0x00, 0x00,
  0x01, 0x00, 0x00, 0x00, 0x01, 0x00, 0x00, 0x00, 0x14, 0x00, 0x18, 0x00,
  0x14, 0x00, 0x00, 0x00, 0x10, 0x00, 0x0c, 0x00, 0x08, 0x00, 0x00, 0x00,
  0x00, 0x00, 0x04, 0x00, 0x14, 0x00, 0x00, 0x00, 0x14, 0x00, 0x00, 0x00,
  0x28, 0x00, 0x00, 0x00, 0x28, 0x00, 0x00, 0x00, 0x01, 0x00, 0x00, 0x00,
  0x48, 0x00, 0x00, 0x00, 0x04, 0x00, 0x00, 0x00, 0xff, 0xff, 0xff, 0xff,
  0x05, 0x00, 0x00, 0x00, 0x20, 0x00, 0x00, 0x00, 0x01, 0x00, 0x00, 0x00,
  0x04, 0x00, 0x04, 0x00, 0x04, 0x00, 0x00, 0x00, 0x21, 0x00, 0x00, 0x00,
  0x73, 0x65, 0x72, 0x76, 0x69, 0x6e, 0x67, 0x5f, 0x64, 0x65, 0x66, 0x61,
  0x75, 0x6c, 0x74, 0x5f, 0x63, 0x6f, 0x6e, 0x76, 0x32, 0x64, 0x5f, 0x38,
  0x34, 0x5f, 0x69, 0x6e, 0x70, 0x75, 0x74, 0x3a, 0x30, 0x00, 0x00, 0x00,
  0x04, 0x00, 0x00, 0x00, 0x01, 0x00, 0x00, 0x00, 0x05, 0x00, 0x00, 0x00,
  0x20, 0x00, 0x00, 0x00, 0x01, 0x00, 0x00, 0x00, 0x05, 0x00, 0x00, 0x00,
  0x50, 0x00, 0x00, 0x00, 0x34, 0x00, 0x00, 0x00, 0x24, 0x00, 0x00, 0x00,
  0x14, 0x00, 0x00, 0x00, 0x04, 0x00, 0x00, 0x00, 0xd0, 0xff, 0xff, 0xff,
  0x0e, 0x00, 0x00, 0x00, 0x00, 0x00, 0x00, 0x0e, 0xdc, 0xff, 0xff, 0xff,
  0x09, 0x00, 0x00, 0x00, 0x00, 0x00, 0x00, 0x09, 0xe8, 0xff, 0xff, 0xff,
  0x16, 0x00, 0x00, 0x00, 0x00, 0x00, 0x00, 0x16, 0xf4, 0xff, 0xff, 0xff,
  0x11, 0x00, 0x00, 0x00, 0x00, 0x00, 0x00, 0x11, 0x0c, 0x00, 0x0c, 0x00,
  0x0b, 0x00, 0x00, 0x00, 0x00, 0x00, 0x04, 0x00, 0x0c, 0x00, 0x00, 0x00,
  0x03, 0x00, 0x00, 0x00, 0x00, 0x00, 0x00, 0x03
};
unsigned int tflite_learn_3_len = 13292;

#endif // _EI_CLASSIFIER_TFLITE_LEARN_3_H_

